#version: 0.2 - Trained by `huggingface/tokenizers`
C C
Ġ a
l e
i s
( =
a t
i n
O C
Ġ m
r o
Ġ is
t h
n d
c u
Ġm o
T h
le cu
Ġmo lecu
Ġmolecu le
Th is
a l
Ġ p
CC CC
l a
Ġ f
c t
Ġ in
CC C
Ġ d
e r
Ġ o
Ġ w
o n
u r
o u
e n
Ġ n
d u
Ġp ro
ou nd
i th
Ġw ith
at a
v a
N C
b le
Ġpro du
C O
Ġf ound
at ur
i d
i la
i c
Ġprodu ct
Ġn atur
va ila
vaila ble
Ġnatur al
Ġa vailable
Ġ c
Ġd ata
a n
Ġa nd
e s
Ġo f
i t
Ġ th
Ġa n
Ġ s
a r
o r
o s
) (
Ġ b
e d
Ġ t
o l
y l
Ġ I
i on
e t
a s
Ġth e
u m
p h
Ġ h
ĠI t
r e
i a
u s
C OC
o m
CCCC CCCC
e m
a m
C N
l y
Ġ g
a c
Ġa c
id e
in e
en t
i v
at e
c h
in g
Ġac id
] (
Ġa s
Ġ A
Ġt o
p t
y d
b er
o x
e l
@ @
s t
Ġ (
Ġ S
y c
Ġ C
Ġo r
O CC
Ġm em
et a
Ġmem ber
i l
Ġ re
u l
Ġ P
Ġ e
r i
yd ro
ro m
o p
- ]
u p
Ġc on
at ion
) [
i um
Ġ r
u n
Ġh as
t i
u g
at ed
Ġg ro
Ġa t
ar b
Ġa l
r a
g an
o t
Ġgro up
en s
u t
Ġc om
o c
Ġb y
e c
e th
Ġ ro
Ġ l
it e
Ġor gan
C l
e ro
i g
b ol
Ġth at
i b
i f
Ġcom p
in o
as e
u c
Ġ 1
eta bol
o d
ydro x
Ġm etabol
iv e
Ġro le
th er
ic h
e pt
Ġa m
ct ion
Ġmetabol ite
) -
Ġf or
]( [
i m
ydrox y
Ġ L
t er
en z
al ly
ly c
o id
it ion
Ġ M
t a
Ġ D
os ph
Ġc h
q u
r an
Ġ 2
) (=
a p
Ġcomp ound
u b
p er
j ug
-] )
el l
Ġc arb
Ġ E
Ġcon jug
h ib
Ġconjug ate
is t
a d
Ġf un
a ct
ox y
Ġw h
ph a
Ġo ther
Ġp h
os ition
is m
Ġr es
on e
e a
CC N
g en
hib it
1 2
Ġa g
Ġ N
i r
) .
Ġ v
eth yl
Ġ H
+ ]
Ġfun ction
Ġ T
ĠS t
Ġ 3
CCCC C
Ġre l
yc es
CCCC CC
Ġf rom
Ġp osition
Ġ B
Ġm a
ac ch
Ġs t
Ġb e
Ġ la
h ydroxy
Ġrel ated
ic a
il l
e p
ism s
e ct
Ġ us
Ġfunction ally
Ġorgan isms
Ġ G
l o
o le
it y
y r
Ġwh ich
r y
Ġ This
CO P
Ġan ti
Ġin hibit
Ġs ub
- (
Ġa ct
Ġd er
ul f
ept ide
C S
O P
Ġder iv
pt om
Ġ k
ph osph
ox yl
Ġam ino
i al
la n
an a
Ġs p
la r
acch ar
ens is
g lyc
in es
i cu
CCCCCCCC CCCCCCCC
ĠSt re
ro n
C NC
Ġmo n
m ent
t y
ĠStre ptom
Ġfor m
ĠStreptom yces
Ġag ent
acchar ide
l ic
Ġsub st
d i
ar y
ta in
o nd
o h
N CC
t e
Ġus ed
y m
ro c
Ġa z
Ġb ase
Ġ es
l or
i p
en e
en yl
an o
l uc
CCC N
y n
at ive
Ġe x
t on
Ġsubst it
c ed
Ġc ell
oxyl ic
3 4
- >
r es
os e
os yl
Ġact iv
e x
ic al
Ġb enz
i es
Ġ R
a v
Ġ Th
)( [
s s
at ty
o w
l u
an t
Ġla ct
Ġ F
Ġ O
n e
B r
a g
c e
. [
at ic
ac h
Ġf atty
an th
Ġa re
Ġ it
a z
ro p
on g
CCCCCCCC C
i o
e v
Ġo x
yc le
m a
om er
b eta
y s
Ġa p
i du
a in
CCCC CCC
Ġs ulf
os a
f f
ac roc
ro s
Ġinhibit or
la m
er p
OC O
i i
Ġd i
Ġan t
Ġ 7
CC OC
Ġh ydroxy
Ġph osph
yd r
Ġbe en
Ġgroup s
b enz
Ġ 4
al pha
r is
yc lic
Ġb eta
Ġp eptide
Ġg lyc
acroc ycle
Ġal pha
ĠA s
ur e
Ġes ter
Ġp ol
en o
Ġlact am
am ide
if ol
i z
o g
Ġaz am
Ġazam acrocycle
re at
Ġsp ec
p or
Ġderiv ative
l ig
es t
Ġa d
Ġ 5
g al
( [
2 3
Ġt ri
Ġ le
Ġo b
g luc
ut ed
Ġ j
Ġa rom
in d
la v
en oid
o ph
id ine
al l
@@ ]
er s
os ide
qu in
arb oxylic
ran s
Ġarom atic
phosph ate
ept or
Ġt reat
Ġorgan ic
Ġsubstit uted
r ug
S C
a b
Ġo lig
Ġ V
m ethyl
Ġ en
Ġactiv ity
et ic
Ġ va
Ġap p
ero id
am ine
Ġ U
ĠTh e
act er
y p
CC NC
o ch
Ġre c
y ran
am ino
ul t
le n
os t
en es
ill us
- ).
Ġc ol
at or
y t
@ ]
ph enyl
o b
la st
Ġh ydro
yn th
o f
it erp
Ġin d
an n
an e
Ġd is
Ġt r
Ġa r
er e
in a
o th
h ydro
ac et
at es
Ġd ep
Ġo n
Ġh av
ĠI n
is ia
er a
ĠA r
am in
C o
ĠA n
Ġma j
Ġrec eptor
ri m
d e
s is
Ġres ult
Ġ im
Ġs al
+] (=
Ġm ethyl
Ġn e
Ġtreat ment
en ic
Ġc an
per g
res s
u nd
ff ect
ĠAs perg
ĠAsperg illus
Co A
Ġprodu ced
tain ed
ĠA l
Ġal k
Ġh um
Ġc ar
Ġin c
Ġposition s
ton ation
CC O
lan t
Ġob tained
Ġres idu
Ġc er
u d
Ġan ion
Ġ K
N A
icu m
ifol ia
s e
in k
Ġcarb oxy
i per
m on
Ġmaj or
) ,
oh ydr
Ġc a
glyc ero
Ġp H
Ġs e
m in
y st
r ac
ĠP h
Ġhum an
1 3
-] )[
Ġd rug
s o
Ġcarb ohydr
ar ia
4 5
ap on
N N
at h
k e
a ph
Ġt er
ole s
last ic
iterp enoid
Ġs ynth
3 2
ent s
Ġspec ies
in s
at er
Ġ 6
ia z
Ġst eroid
Ġe ffect
at um
os accharide
id es
as s
Ġp ot
it ro
ou s
Ġe ther
Ġp ar
as t
e nd
ro l
Ġma y
Ġre p
Ġac yl
enic ill
on ist
Ġp lant
CCCC N
Ġas s
ac yl
oid es
or m
eth oxy
u la
+ ](
es e
Ġt et
Ġl ong
al is
N H
Ġdep ro
d ia
ar p
Ġcon s
Ġdepro tonation
e ar
et ero
v er
Ġp re
ot ic
h ex
id ines
Ġb i
ad ec
en ol
Ġch em
lar ia
la ss
um or
Ġsal t
ĠC h
el la
op yran
op lastic
c oh
coh ol
Ġt rans
at us
c er
Ġc or
cu s
Ġe le
Ġant ine
ch ain
Ġantine oplastic
N S
i ana
Ġal cohol
al s
oc arboxylic
r ic
Ġd e
Ġh etero
acet yl
an g
ol ine
Ġpro te
Ġc lass
O S
Ġs ec
Ġs ol
is s
Ġolig osaccharide
CCCCCCCC CCC
Ġres p
ĠP enicill
a nd
Ġpot ent
Ġp yr
2 1
acter ial
c on
Ġal so
Ġac et
ĠPenicill ium
ig n
an ti
' -
Ġcon tain
CCCCCCCC CC
b i
Ġmon ocarboxylic
r um
cu m
ive ly
ol ated
yl l
ph or
f er
Ġt umor
s n
Ġ1 9
ig h
an s
l in
gal act
op sis
us e
cu r
ta g
Ġalk al
Ġsulf on
Ġit s
Ġr ing
Ġj apon
Ġcons ist
lo ro
c arb
rom yces
c in
anti omer
Ġf lav
Ġb ind
Ġox o
Ġin t
ro t
a romyces
c es
Ġalkal oid
er g
ol ines
Ġc o
u ch
Ġl ink
enz ym
1 6
uc le
om a
Ġw ater
Ġm e
at i
er y
1 0
Ġc ond
Ġ un
Ġk et
o yl
Ġphosph ate
Ġhav ing
it is
ator y
Ġchem ical
Ġn on
s ch
CCCC OC
Ġb ut
l ut
Ġn ot
Ġex p
u e
Ġo ne
Ġcell s
c a
i qu
Ġam ide
Ġsulfon amide
Ġt a
ano ic
Ġglyc oside
ro v
Ġsec ond
f ol
ow n
r u
Ġ quin
lam ine
d or
Ġp y
Ġw as
Ġ J
Ġat om
er i
Ġto x
in ensis
os por
Ġat t
icu s
Ġsubstit u
es is
ar m
N CCC
if lor
od ium
r h
Ġre du
b y
a le
Ġpol y
ox o
ug ar
1 4
ĠI s
ĠS acch
Ġt w
Ġresidu e
Ġ z
i ated
ens e
em b
d er
an ion
en ce
Ġin f
CC OCC
Ġcarb oxylic
on ia
l oc
ear s
Ġinhibit s
r ation
Ġo dor
Ġrep la
Ġcarbohydr ate
p yr
us t
CS C
at iv
Ġtw o
Ġmolecule s
Ġis olated
re as
ĠAr t
ĠE u
Ġform al
ri b
ic ide
i ly
Ġresult ing
ev isia
Ġcer evisia
ĠSacch aromyces
Ġcerevisia e
Ġm ed
cu l
bi otic
t s
Ġk in
Ġin du
Ġket one
os amine
lu o
ar g
Ġ y
le ss
Ġen antiomer
Ġsecond ary
Ġg luc
Ġch lor
4 3
Ġatt ach
Ġ x
y per
eno ic
st ra
anth us
Ġ und
o la
r ich
on es
-] .[
Ġa b
Ġattach ed
Ġcon t
i x
Ġp rim
le ct
e g
ar d
Ġeffect s
id in
Ġs ugar
itro gen
1 1
CCCCCCCC CCCCCC
Ġtox ic
ris ing
ra z
Ġrepla ced
Ġs er
Ġin s
Ġs h
ens ation
Ġ Z
Ġd ec
Ġs uch
le x
enzym e
Ġc yc
c ens
ic ally
aph th
a ur
Ġan g
at id
Ġapp ears
k in
Ġresp ect
at ing
tag onist
Ġcol or
a y
f ic
os it
ron ic
lam m
Ġcond ensation
on ic
Ġm an
Ġrespect ively
Ġin ter
op eptide
va n
r en
Ġa ction
if era
Ġconsist ing
il is
glyc osyl
Ġ2 0
o v
o in
Ġ W
i an
ĠE sch
i ol
b ia
i ed
ich ia
et y
Ġcol i
i us
in n
icu l
or t
od er
Ġm ar
Ġs m
Ġe p
ap y
iqu id
e ph
Ġpotent ial
atur ated
ĠR h
Ġin v
2 4
Ġass emb
a e
os is
t ri
er ichia
Ġhav e
ĠEsch erichia
Ġv ir
Ġacid s
m ann
it r
ano yl
o ct
Ġ [
a x
Ġl iquid
b ut
Ġ ur
Ġth an
yll um
Ġp ent
ation s
p ar
CCCCCCCC CCCC
p ress
on oid
id az
v i
t et
Ġc al
Ġassemb ly
Ġc lin
v ent
ativ es
Ġth ere
o ic
od on
Ġb acterial
ti ary
oc arp
T P
Ġter tiary
Ġbind s
CO CC
Ġal b
p osition
ĠA g
el s
Ġm ic
oder ma
Ġolig opeptide
o pt
c yl
Ġprote in
er al
Ġm et
o gen
Ġbenz enes
Ġcontain s
o ur
ĠS al
er ide
Ġderiv atives
Ġe nd
Ġh ex
Ġh ydr
ĠArt em
Ġus e
Ġth er
Ġan al
Ġp ur
on a
CCCCCCCC CCCCC
S CC
Ġjapon ica
ĠArtem isia
ĠD NA
Th ese
as accharide
Ġb ond
om o
os ine
Ġcarb on
CCCCCCCC CCCCCCC
Ġ19 9
N a
Ġ X
Ġkin ase
Ġs c
phosph o
ur an
if er
glycero l
Ġspec if
Ġtr iterpenoid
ur ation
or d
u laria
Ġs es
ou n
phor bia
Ġex hibit
om e
la s
ĠEu phorbia
i le
us c
Ġphosph atid
Ġresidu es
l c
s ulf
Ġorgan o
er v
Ġan tagonist
CCC NC
Ġprim ary
ĠE C
Ġph enol
k et
yl la
en c
iflor a
m un
r it
ri pt
ag e
Ġa cu
Ġcompound s
Ġsynth etic
es cens
or a
in f
an ine
ti g
Ġm in
ure as
in um
Ġph enyl
en a
id a
Ġpro l
ĠD i
os um
lamm atory
ro ph
5 6
Ġm ac
Ġh e
cu lar
G lc
Ġo c
N O
Ġcarbohydr ates
b in
Ġinc lu
Ġb oth
e i
y le
it ter
Ġhydro gen
r ia
Ġlink ed
f ig
Ġbi phenyl
ano lamine
s aturated
= [
fig uration
Ġthere by
Ġgro w
Ġo le
Ġl iv
Ġad d
o lan
ra ct
ero l
1 5
ry s
a len
Ġad min
ys accharide
es s
Ġth is
Ġcan cer
Ġm ethoxy
Ġn ucle
p i
dia cyl
m ed
Ġva ri
u lar
r et
Ġ qu
O O
Ġcolor less
se ud
Ġapp rov
Ġc yclic
b ran
in us
du l
Ġne u
en ia
Ġse lect
5 5
yst em
Ġund er
oc iated
re e
act or
de oxy
Ġsynth esis
am ides
Ġc ry
ro b
Ġs ym
loc k
ch an
Ġgrow th
Ġg en
Ġ ion
benz enes
g h
Ġg la
ch lor
Ġr ad
Ġreceptor s
Ġal l
Ġh igh
S CCNC
Ġg ra
h yd
erg ic
Ġg u
it ies
Ġ ent
Ġc yt
t ic
d ing
Ġof fic
am ic
Ġp er
as es
opyran ose
Ġme chan
ur a
Ġflav onoid
Ġsubstitu ent
Ġhydr ide
lu or
- [
- )
ox amide
Ġag ain
Ġsulf ate
] .[
i ph
D A
luo ro
Ġagain st
Ġ 8
Ġs ign
ist ration
Ġpol ysaccharide
ĠIs odon
ox ic
gen ic
CCCCCCCCCCCCCCCC CC
c ing
Ġses qu
Ġtet ra
ĠM G
ĠA ct
eno yl
Ġoxo anion
an ce
stra in
p rop
16 55
an oid
Ġliv er
el op
1 9
benz ene
Ġsol id
Ġ ureas
Ġmon o
+] .[
ĠT rich
hib ition
Ġs ystem
le t
n a
ar c
ro te
g ens
ocarp us
Ġle ad
ĠA c
Ġf u
ati ents
Ġp iper
Ġs im
Ġresult s
Ġca us
Ġse qu
o is
Ġact ive
an ia
l i
Ġa rising
la ct
er b
inf lammatory
Ġdis e
3 5
ly s
Ġoc cur
NA c
it s
Ġther apy
id o
rom e
Ġcry st
Ġderiv es
Ġmechan ism
de hyd
e um
p on
v ia
r am
op rop
in ia
Ġb lock
le s
Ġpro per
er ia
ru ct
Ġo ct
Ġass ociated
ros ine
Ġphosphatid yl
e ction
Ġs kin
Ġva s
th e
y a
ar is
Ġs odium
Ġd ev
O CCC
Ġpro st
em on
in ic
ic arboxylic
Ġanti biotic
Ġexp os
' s
ur amin
Ġinclu ding
Ġ 9
Ġt yp
OCC N
Ġele ment
glyc eride
Ġexhibit s
g ia
Ġag onist
r al
m al
m ar
Ġb r
ĠSal via
es tig
le a
Ġaz et
Ġn um
w itter
le r
u ble
witter ion
f un
3 1
t ed
Ġphenol s
am ate
ĠM ic
or us
ic os
Ġazet idines
Ġh arm
Ġadmin istration
Ġr et
Ġ enzyme
Ġin hibition
fol ia
Ġdi phosphate
] -
m eth
ĠP ol
i ensis
ud y
Ġinv estig
g ium
al a
Ġe th
Ġdev elop
lo w
M an
ar ium
Ġmo st
Ġc ent
di hydro
Ġapprov ed
mon ium
igh t
Ġmem bran
ospor a
s ed
Ġanti b
Ġle v
Ġz witterion
ut omer
Ġinc reas
ar cin
ĠP iper
1 7
o quin
Ġta utomer
Ġm usc
v ers
ry ing
d im
Ġn itrogen
g ul
Ġv ia
u f
g est
ifol ium
p ec
ra g
Ġbiphenyl s
o od
D P
osit ol
Ġ ir
ol og
Ġtri glyceride
am ma
ur n
Ġclin ical
Ġadd ition
Ġs ev
Ġint o
Ġflavonoid s
Ġor ally
y an
Ġmo use
Ġc ation
ĠH el
od i
Ġd iterpenoid
Ġva r
ell ow
la nd
ĠA m
lo od
Ġprol ifer
Ġf ir
Ġim p
ol or
ti es
g n
Ġd if
ph ing
Ġw all
Ġn aphth
N TP
Ġf actor
al k
Ġp atients
g lut
Ġor al
opyran osyl
Ġ199 2
ur ing
oxy gen
Ġap opt
op e
+ ).
0 0
Ġl ip
Ġb lood
i ent
er ic
Ġb re
ĠA p
of lav
Ġg lut
ur ea
Ġproper ties
s or
ole st
Ġnum ber
i ens
Ġn it
hibit or
f or
ac e
ou gh
ĠP seud
Ġo ver
g e
ti m
ar yl
Ġch inensis
a k
1 8
p le
Ġb ro
ou ble
Ġs up
il ity
r ass
la van
ĠU sed
i ety
ĠG arcin
dehyd e
ĠGarcin ia
in ium
n own
ĠL aur
Ġm eth
ĠIn hibitor
ĠAn n
5 4
em ia
Ġp r
ĠN e
Ġox id
vi ron
viron ment
gluc os
in osa
Ġanal og
Ġspecif ied
Ġp res
Ġc ap
Ġsm all
ra b
ĠC or
yc l
th r
Ġl ow
Ġsequ ence
lo b
h al
ĠG an
Ġim mun
Ġapopt osis
ĠU pon
os s
Ġwh ite
el ia
Ġin j
Ġn ig
per m
ĠO H
ro st
im a
u k
ĠGan oderma
n it
Ġoffic in
Ġins ect
ĠS olan
Ġcom bin
yc in
Ġp l
Ġp ath
Ġprolifer ation
pyr idine
ur y
uramin ic
os p
Ġpro p
+] )
Ġdise ase
al anine
Ġh yp
ip eptide
ĠSolan um
iz ed
Ġpre vent
el ta
Ġind ica
Ġexpos ure
c ent
er m
p ent
Ġen vironment
Ġhydro chlor
and ra
it um
CC SC
N NC
os us
Ġca use
och oline
ch ed
ĠE ry
ĠLaur enc
ĠS ch
o ti
rim idine
Ġantib acterial
iz a
G al
Ġent ity
on ate
ph en
Ġpur p
2 0
Ġs em
ĠLaurenc ia
tet ra
G F
Ġh ydrox
us ti
phosph ocholine
Ġcar rying
Ġd uring
i ally
ĠP ar
in c
ois omer
Ġs ap
ug h
eth anolamine
al m
Ġsubstitu ents
en g
in al
Ġpro ton
ĠG lyc
Ġman y
Ġhydro gens
Ġatom s
am ily
Ġj oin
Ġam ine
Ġquin olines
Ġth ro
ir al
Ġpy raz
y la
ol v
t us
Ġh erb
Ġd ouble
Ġla n
icul ata
t r
Ġb io
ion e
f lav
Ġp ow
Ġmo re
ĠC al
ax us
er ine
ec a
Ġy ellow
ĠAnn ona
Ġp la
Ġan th
a ea
Ġne uraminic
Ġsign al
ro gen
Ġl oc
Ġd icarboxylic
di hydroxy
benz oic
Ġt y
Ġs ur
Ġfir st
ter n
Ġmo iety
2 5
p s
ol in
Ġant ic
Ġx eno
Ġ i
Ġtri als
Ġactiv ities
o ate
ĠF DA
an yl
ul us
Ġr ub
is h
Ġf amily
an um
Ġcyc l
oct adec
Ġsesqu iterpenoid
Ġh ist
ero x
Ġt ris
ry pt
ou mar
ac yclic
Ġxeno biotic
Ġ el
in ositol
un g
ero s
Ġhydrochlor ide
v ents
am n
Ġjoin ed
er c
CO S
ep ine
i ble
ĠC a
ino genic
an ol
Ġproduct ion
Ġcomp on
amin yl
Ġcal c
Ġg al
m ethoxy
Ġp an
ana x
n u
ide a
id ium
) /
iaz oles
rh iza
CC l
Ġst ruct
i oides
ĠM ar
Ġinf ection
in ated
ĠC on
end ron
iterp ene
Ġmet al
ero ne
Ġofficin alis
e uc
Ġt ub
Ġfun g
Ġam monium
orm one
Ġlev els
Ġthro ugh
oxyl um
ress ion
y g
la d
az ine
y e
Ġg amma
oph ora
Ġselect ive
Ġc le
ar e
m ic
Ġm il
Ġ1 7
con figuration
Ġacu te
fun gal
Ġele gan
Ġhetero c
arg et
Ġcyc lo
ch n
ĠC ur
Ġl uc
ev er
w e
l d
t rans
an es
if ic
idu m
id ic
por t
Ġelegan s
oc cus
of uran
Ġmolecu lar
ut ic
al th
ur ans
ell ia
t ens
on as
l la
Ġch ar
Ġnatural ly
Ġb rom
im idaz
Ġst udy
h ept
ox ide
Ġam oun
Ġs o
Ġex c
us s
Ġl ine
p iper
it es
Ġlact one
Ġatom ic
eph al
ĠC D
st eroid
ot ide
Ġn erv
ĠH omo
di i
Ġcom mon
al y
phospho ethanolamine
Ġsap iens
Ġty rosine
ic olor
ĠRh od
Ġproduct s
e y
Ġm ix
Ġpath w
y lam
Ġm ut
ich loro
Ġacet ate
on itrogen
a f
Ġorgan onitrogen
gluc osamine
oph yllum
Ġh ep
b or
ĠS c
ter e
f ul
ĠI I
galact osyl
Ġ em
Ġch rom
M P
ar um
pt ion
Ġpow der
Ġdis accharide
Ġinj ury
ent ly
Ġthe ir
Ġinvestig ation
Ġanti fungal
e us
u ro
on yl
ul ti
ero ton
at in
Ġth io
y b
Ġv ul
ery gium
Ġes t
eg a
Ġv er
t ia
gluc oside
Ġredu cing
ĠS en
ĠT axus
re ase
Ġcont rol
ot oxic
NC I
it amin
odi ox
Ġd ue
Ġk nown
Ġ ly
an us
or h
Ġchlor ine
Ġv ery
-[ (
ĠT ript
Ġtris accharide
Ġd ia
n itro
ĠC an
Ġalk yl
ol uble
Ġw ell
ĠT a
Ġinhibit ing
od endron
ĠD aph
Ġd ipeptide
hal ation
' ,
y ch
os ed
u v
ces s
all ine
Ġtet rac
erp enoid
CCC O
yc lo
CCCCCCCCCCCCCCCC C
rop yran
g es
u di
Ġmusc le
Ġt iss
ĠJ un
Ġser um
ou t
Ġox y
Ġb ran
Ġmon ot
ĠF us
hex adec
Ġform ed
Ġtet r
Ġir rit
hex a
Ġh ormone
flav one
i k
Ġd o
Ġth ese
Ġa f
ic yclic
Ġgra nd
Ġfu ropyran
n aphth
Ġt arget
Ġim idaz
Ġele v
ĠS arc
Ġcompon ent
Ġamoun ts
il la
i ber
Ġpol ym
Ġa ir
Ġth ree
os c
t ing
Ġprote ins
a et
Ġglyc os
con itum
Ġcryst alline
ĠFus arium
ĠA conitum
yst e
Ġ1 1
if orm
ĠTript erygium
Ġan nu
Ġh yper
ac ea
Ġf um
is c
ch in
act iv
Ġglyc osyl
l ink
Ġ up
oc os
Ġpyr rol
u ber
S i
ul in
Ġs tim
ĠP anax
Ġacet yl
perm um
Ġs ta
Ġcer tain
Ġp ul
un saturated
Ġconsist s
S S
or s
Ġorgano phosphate
ĠL ig
dim ethyl
Ġin halation
Ġd im
Ġcar c
Ġsh own
e f
2 2
t ana
c ript
ero c
och lor
ren ergic
an ensis
ph enol
Ġma ke
I V
Ġf luor
ri g
Ġc am
ian um
GF R
Ġm ulti
Ġpro tonation
ong ia
w n
ep s
ole n
a ction
ro ss
g ra
em a
l ong
Ġb ra
Ġre le
Ġco enzyme
p id
ano ate
yle th
uf act
d rug
ĠA d
Ġbran ched
Ġf ol
on ucle
di ol
Ġbind ing
op y
c is
c k
c ar
ib enz
io la
ox in
Ġtri al
i ate
Ġad en
Ġt en
ex press
Ġman ufact
Ġstudy ing
ut ion
Ġvul g
Ġ er
Ġ rib
Ġsym bol
op s
Ġpre vents
itr us
Ġm y
Ġcomp rising
Ġpar ent
em ic
at ri
ar ing
rote in
op ent
p an
an ces
ap s
Ġv ol
Ġform s
Ġm uc
Ġch ronic
Ġx anth
B s
Ġg lob
Ġbenz amides
Ġs eroton
ox id
Ġchemical s
o lar
t en
Ġam in
CS CCC
ĠAl l
Ġcalc ium
id er
Ġsignal ing
Ġan im
ĠC am
len t
ro du
Ġw ide
ch loro
Ġorgan ochlor
Ġmonot erpenoid
r ata
ot us
Ġch olest
ĠH yper
Ġmed ic
0 4
Ġind ole
li ke
Ġb acter
Ġorgano oxygen
d ec
ĠP ic
Ġ Â
ri um
Ġbenz odiox
Ġvari ous
ag es
ur us
et ra
Ġan omer
ip p
ag land
act ive
E T
Ġcombin ation
oprop yl
am ido
Ġclin ically
alen es
ĠÂ °
Ġ cur
Ġf luoro
Ġth iol
Ġh al
Ġh em
Ġcarb oxamide
lact one
Ġph en
ĠIs olated
ĠTrich oderma
ĠS in
Ġdi hydro
ĠC om
Ġs apon
il ic
Ġth al
p a
ul ation
ow ever
galact ose
min al
re m
Ġcarbon yl
M A
Ġv itamin
Ġdec reas
b ra
ur es
Ġcon figuration
i ata
NC T
Ġg ran
Ġf rag
Ġch ain
Ġ1 0
le d
Ġchlor ide
ila r
Ġb et
Ġbond s
ric yclic
fer ent
ĠAll ium
Ġoxy gen
em ent
ĠW ith
r uc
er is
Ġcon cent
carb oxamide
Ġ NCT
Ġgluc osamine
thr ina
er at
Ġs inensis
med iated
gluc ose
ĠEry thrina
or ph
am a
ĠC itrus
it t
ĠCur cu
i ot
ad s
Ġst udi
Ġbe aring
ab d
Ġs ome
Ġ1 2
Ġharm ala
Ġpar v
olog ical
6 7
ati va
e b
Ġ cu
v al
Ġto p
Ġactiv ation
yle ne
Ġheteroc yclic
y es
Ġd ibenz
Ġang usti
Ġp ain
Ġd op
u pt
Ġsulf ur
Ġjapon icus
Ġmic ros
Ġw il
Ġma in
Ġtoxic ity
or gan
Ġphenyl pyridine
ol ic
Ġmo r
if ied
ĠF er
Ġar g
Ġglycos idic
s p
at ica
du s
Ġapp ar
Glc NAc
th al
Ġsapon in
f orm
CCCCCCCCCCCCCCCC CCCC
Ġre gul
Ġanalog ue
end ent
k en
os ulf
p y
carb oxy
Ġorganochlor ine
CC S
ads ura
f lavan
i ation
er ation
Ġt om
Ġr h
Ġcomp lex
Ġmar ket
st ri
por a
Ġind ol
th us
Ġd ye
ur ra
ros ia
s erine
Ġw e
ri le
gluc osyl
ent ial
z ia
h ydrox
od e
ann ab
P A
Ġanomer ic
c r
o k
Ġmed ium
en antiomer
il us
r us
Ġpro drug
im um
Ġact s
Ġfun gal
Ġf er
u x
Ġcent ral
Ġbro ad
Ġanal ges
rab id
p ond
Ġm al
Ġf r
Ġs ativa
Ġderiv ed
Ġresp on
glucos aminyl
Ġappar ent
Ġg ast
OCC OCC
iaz ol
Ġacet amides
r ing
Ġcon ver
ĠTh ese
Ġsim ilar
ĠHyper icum
Ġsulf ide
alm it
Ġ enzym
ĠC ent
)- [
oin t
ifol ius
Ġcle ar
ĠFer ula
Ġd es
ol s
eno ate
Ġb el
Ġcomp osed
med iate
rabid opsis
ine a
ĠA rabidopsis
Ġloc ated
i re
Ġex t
ad i
gest ion
Ġbio a
c ea
ac c
Ġthal iana
Ġr ac
Ġch loro
f luo
Ġan il
Ġcontain ing
2 6
N OC
in ate
yl ic
ĠC ar
Ġch ann
Ġinv olv
el ph
arg in
ĠS e
ĠK adsura
Ġtetr asaccharide
CC OP
or um
ĠThe y
as ed
rom ethyl
Ġhe alth
Ġdevelop ment
ĠM a
res pond
Ġle uk
Ġsev eral
en orh
ect ive
op yr
Ġbenzodiox oles
st it
Ġla r
in ary
it ive
p inia
il b
ber gia
rob ial
n ia
alk yl
az ole
inn am
Ġinfection s
Ġmac roph
Ġcyt otoxic
ĠPol y
ylam ino
Ġs ch
Ġh ir
yr rhiza
Ġcaus es
al i
yr ic
ac ia
ĠN ic
Ġun its
ĠCurcu ma
a ke
fer ase
Ġmembran e
) ]-
Ġf ood
Ġs ide
am e
Ġoct adec
ĠGlyc yrrhiza
Ġis oquin
@@ ](
ch oline
ot a
O H
t ure
Glc p
el laria
yt ic
Ġlead s
Ġre action
iz ation
phor a
tet rac
il lea
Ġre m
Ġind oles
ar ius
Ġelev ations
i ke
Ġanti h
Ġab sor
ct y
et in
ph ylla
od ec
Ġincreas ed
Ġoccur s
r ine
od es
ĠAg la
Ġdif ferent
Ġanalges ic
os es
uc ine
gluc opyranosyl
anth oxylum
Ġind ic
ĠZ anthoxylum
Ġline ar
cript ion
ĠAgla ia
ĠP et
ĠE x
Ġres ist
th re
Ġbi le
u ally
is ter
enc y
Ġc at
ab a
Ġpathw ay
oxid ant
ĠD al
Ġbenz oate
O N
oc yan
Ġ1 5
Ġwh en
az ines
Ġprost agland
r ed
Ġgal act
organ ic
Ġw ere
ĠM yc
Ġcor respond
sulf o
Ġtyp es
Ġnaphth alenes
od il
6 5
erp ene
Ġon ly
ro x
Ġst ra
Ġar yl
Ġmin eral
Ġlip id
ro ch
Ġin gestion
cu t
Ġin organic
Ġs ing
Ġro t
ĠCh aet
Ġorgan osulf
Ġsal ic
Ġluc idum
c arboxylic
Ġform ula
Ġalb a
iform is
u le
as par
ĠM on
m ph
Ġfunction s
of urans
yste ine
f uran
mon o
ĠCD F
ĠM orus
h t
Ġes s
of luor
ĠSch is
Ġcorrespond ing
u th
va lent
lic ation
ĠSchis andra
v en
Ġquin az
iz ing
iss ima
g o
Ġeth yl
re l
ac k
Ġwh ere
ach ys
Ġconcent ration
ro le
quin oline
I I
Ġm it
ĠSt ry
Ġplant s
Ġherb icide
um b
ect rum
ĠC ro
eca use
Ġal dehyde
Ġanti oxidant
ff ic
carb on
o ther
ur ic
ep endent
idu ronic
ĠChaet om
on ine
Ġb arb
em ical
Ġep it
ut e
ec io
ig lyc
for dii
Ġwil fordii
Ġbioa vailable
Ġess ential
7 8
ut a
ut ical
Ġorgan ofluor
Ġp est
Ġpro cess
it ol
ĠT al
ery th
oti ana
Ġorganofluor ine
it a
uc a
Ġhetero t
Ġsym ptom
Ġconver ted
iglyc eride
e w
lu cu
@ ](
Ġd am
Ġth i
Ġg ris
Ġr is
gluc opyranose
ĠChaetom ium
ta ct
f uc
Ġc ate
Ġmethoxy benzenes
ret ion
i osa
Ġd el
ter ase
Ġagent s
ign an
Ġpolym er
Ġepit ope
Ġcarb amate
pi oid
mic robial
os permum
om onas
ti i
Ġvari ety
pec ies
ip id
fluo romethyl
CCC OC
o ron
Ġp oint
Ġmon osaccharide
anth a
lys ine
Ġheterot ricyclic
Ġm ann
Ġox ide
Ġnerv ous
Ġl im
Ġpoly unsaturated
Ġseroton in
v ir
CCCC NC
ip es
ins eng
Ġhex adec
a ys
ĠI p
Ġenzym es
Ġa ur
ar a
od y
Ġform os
Ġselect ively
Ġmicros pecies
Ġc oc
Ġh ept
Ġinsect icide
yleth anolamine
Ġs tere
Ġim port
Ġmar ine
omo ea
Ġten u
C Bs
in ense
Ġanti microbial
Ġpar ti
Ġtyp e
Ġharm ful
am us
Ġlink age
ĠM urra
lan s
Ġp eri
et al
ul ata
Ġpla ys
we en
ĠNic otiana
cu la
Ġhuman s
ĠIp omoea
ar ach
ĠP la
in er
il ia
orm al
Ġpur ine
alen sis
chn os
a ir
c om
Ġn ic
Ġal ler
yn g
Ġpl at
on ium
Ġbet ween
Ġin st
ion ine
ot ri
ĠT euc
ĠTeuc rium
Ġc is
Ġv in
Ġeffect ive
Ġo m
Ġg as
ĠA b
ĠD ia
ect ed
osp ongia
Ġrele ase
ĠStry chnos
Ġp ers
er n
un n
ens in
Ġv ers
Ġvulg aris
Ġdop amine
s oluble
+] =
arp a
la x
Ġo il
as m
ph y
lig ht
quin one
Ġf our
ent al
oc on
ĠM el
ĠH owever
ĠMurra ya
est inal
Ġt est
et es
em ber
Ġg rac
Ġbe ing
Ġdi hydroxy
by a
ĠSin ularia
ing iber
Ġr are
Ġmetabol ism
ap e
Ġpy rim
a h
res t
acet amido
r at
an ch
ant ia
Ġant iv
ĠAr ist
iaz ine
rol ine
arm ace
a pt
on ospora
Ġe yes
ĠAl tern
Ġlink ages
Ġpiper idines
Ġangusti folia
ĠO n
Ġstim ul
in ation
Ġindol yl
Ġimport ant
oc ar
Ġrac em
Ġpro m
ĠMic rom
v e
ĠAct in
Ġaden osine
r as
Ġk ey
ĠZ ingiber
upt ake
Ġrem ov
Ġf ree
Ġn o
va s
om yces
tri fluoromethyl
tetra hydro
Ġpyraz oles
yng bya
ĠPh ys
Ġt erpene
th ough
Ġh om
ĠLig ularia
ĠTal aromyces
Ġin te
Ġmor ph
Ġbenz oic
Ġdevelop ed
Ġinvolv ed
ac illus
ĠA stra
Ġst ilb
Ġaddition al
g el
r enyl
ino gen
acchar is
ob acter
ĠHel i
Ġbre ak
armace utical
ate ly
ĠS ophora
ĠB accharis
4 6
] (=
ct or
Ġof ten
oxyl ate
ĠAl st
Ġcommon ly
y ano
ĠR ub
Ġstruct ure
Ġbel ong
Ġlar ge
ynth etic
Ġgu an
ĠAltern aria
c le
ac id
Ġtiss ue
Ġh ea
Ġ1 4
Ġtom ent
A B
i ra
ĠR NA
aur ea
iot ensin
abd itis
u es
Ġprevent ing
Ġn itro
Ġs il
os m
ĠM e
Ġca nd
ĠCa enorh
Ġantiv iral
ĠCaenorh abditis
ass ium
Ġquinaz olines
Ġa er
il ob
ĠH IV
Ġpyr idine
ĠDi cty
Ġneu rot
Ġris k
r in
ĠE up
Ġsm o
Ġmembran es
d ependent
Ġc ou
ol och
et ia
Ġd et
Ġd iv
Ġre vers
Ġr ed
ell ular
Ġ -
ĠE p
ym n
Ġphosph or
ost erone
f luoro
n us
r un
Ġph ys
Ġst ri
ĠO r
Ġdi anion
elph inium
ĠD elphinium
Ġpurp urea
ĠSen ecio
b is
y ro
al c
id is
re ct
-] #
Ġglyc ero
Ġvir us
ĠAlst onia
y z
y lamine
Ġint ra
Ġrot und
a em
ĠD end
iper us
ĠJun iperus
A s
Ġc ephal
ul s
ĠM ay
ĠH al
position s
y ton
id ent
Ġdi aryl
Ġom ega
] ,
a ble
Ġinc rease
C Br
iv idu
Ġinter mediate
Ġhep at
ri f
Ġcell ular
ind ole
arm ac
opy rimidine
Ġw or
ĠA st
Ġr ate
cus pid
ar k
p rote
Ġ erg
op las
Ġr ap
Ġpol yp
C H
es th
ot rop
ino id
CCCCCCCCCCCCCCCC CCCCCC
Ġglyc ine
Ġp inn
2 8
p e
ri x
im e
Ġar bor
Ġur inary
Ġgla bra
ag ing
Ġpyr idines
Ġsing le
ec eptor
j a
lar is
Ġcond ition
ĠX yl
Ġmacroph ylla
2 9
-] .
ĠL yngbya
ant s
ag n
Ġsup press
or n
Ġe qu
oc occus
cuspid ata
Ġh el
Ġl ike
io ph
Ġmaj us
ang e
Ġcryst als
oloch ia
ur ine
ent a
ero n
ĠD is
gal a
Ġind ividu
Ġsesqu iterpene
ĠPoly gala
ĠArist olochia
3 0
Ġb urn
re gul
Ġob tus
ĠAl pinia
Gal p
Ġor ient
Ġv i
Ġj a
Ġblock s
Ġdo es
Ġhir s
A l
Ġro s
Ġole f
Ġstilb enoid
D elta
iv al
Ġcom mun
g u
at s
or ea
@@ ]([
ĠH e
Ġvas cular
Ġam eric
Ġsev ere
as te
ĠM or
Ġexp ression
ĠPseud omonas
in t
Ġd own
id ase
ox az
ĠS w
iaz ole
Ġcor d
ĠA z
ĠC yt
ĠL e
Ġde ath
ĠArt ocarpus
Ġl ight
lo e
enicill in
Ġpoly phenol
osit ive
mann osyl
Ġover express
ĠCro ton
F e
Ġp ap
ch rome
Ġen h
Ġsol ution
ĠCan cer
ĠCam ellia
prote inogenic
c o
Ġc it
Ġc rass
Ġs qu
Ġcom b
Ġform ation
Ġle ss
onucle oside
s ub
er ber
p erox
lan thus
ĠR e
ethoxy benzene
Ġsol uble
ĠAct aea
oumar ins
Ġantih yper
Ġd ist
Ġo pioid
ber na
il i
gal us
ator ium
Ġrep lication
emon tana
Ġtub eros
ĠAstra galus
ina le
olines terase
Ġa ff
Ġp ub
Ġe ar
ry pan
Ġjapon icum
ular is
Ġnit rile
Ġisoquin olines
Ġb ron
ĠP inus
Ġfluoro chrome
ister ed
l us
ic ides
ol ia
re us
ĠA ch
45 0
oflav us
ic ola
Ġb ody
ol id
ac os
uc cin
yst is
Ġm yc
och rome
g er
h ydr
i w
ĠI ris
Ġgluc os
berna emontana
Ġwh ile
ĠB rass
CCCCCCCCCCCCCCCC CCC
ym b
ros is
Ġkin ases
Ġsim p
rypt oph
Ġprom ot
g lucu
Ġ Q
in yl
on ii
or b
Ġl ung
ĠV itis
mann ose
ĠTa bernaemontana
Ġsymptom s
ar ily
ĠS cut
ĠC la
ot rys
Ġinhibitor y
Ġest rogen
e rom
Ġhigh ly
ĠBrass ica
ĠScut ellaria
ar n
Ġfung icide
i pt
Ġ eryth
ro lo
Ġ1 35
lor a
ĠU n
len ium
tens ive
Ġtoment osa
D B
o ro
Ġmo d
Ġp ost
Ġt in
per ma
Ġtrans cription
Ġta ken
Ġgluc ose
ichloro benzene
en n
Ġc r
re g
ĠP s
Ġcar di
rol ide
Ġtumor s
Ġpiper azines
Ġimp rov
p is
Ġa qu
as is
ĠS m
op ia
Ġsol vent
Ġresp ir
ia m
fol ium
Ġwide ly
ape utic
ĠEup atorium
od iaz
ĠM ac
Ġhydrox yc
ĠDal bergia
ĠMicrom onospora
- {
8 9
CO CCN
Ġc ycle
ĠC ol
Ġl at
CS SCC
AB A
Ġp lastic
ph yllum
ĠP er
iol og
un ct
ter m
ĠG on
Ġpot assium
Ġrad ical
Ġmarket ed
mono phosphate
H T
y nd
ion s
ine lla
Ġexp l
Ġprostagland in
u cum
Ġs om
ale ne
Ġpent acyclic
Ġcarc inogenic
iv ity
thre onine
en al
ear t
Ġnig rum
s h
Ġs u
ar ic
ĠG u
ost eroid
ort ic
ĠAp is
Ġc ross
Ġ1 6
ĠH ap
Ġma x
Ġpan iculata
y th
p eptide
s m
id ne
ĠE le
se qu
Ġodor less
Ġang iotensin
Ġvas odil
Ġenvironment al
Ġc itr
Ġs ed
cul us
Ġcoc c
atur e
lyc op
ty rosine
rh amn
nit ine
+ )-
Ġs ativ
ĠAn ti
Ġnucle oside
ycl ine
Ġt aba
Ġcom m
Ġcyclo hex
Ġtaba cum
a ul
p yran
Ġp seud
op a
Ġbenz yl
Ġar s
Ġmac rolide
piper azine
z a
oc osa
Ġen one
Ġtr ich
Ġun saturated
Ġbron ch
Ġn or
Ġn ec
ol one
Ġm ater
CCC l
Ġn ame
OCC O
Ġm am
Ġwith in
if e
rac ellular
Ġvir al
Ġchar acter
Ġbacter ia
Ġd iterpene
ĠS p
Ġch inense
rot ective
Ġtarget s
Ġsmo oth
Ġd elta
Ġindu ces
olen s
os oma
eth er
ap enta
ir ach
rys um
Ġoffic inale
Ġremov al
B P
ox yc
Ġcont amin
ryptoph an
in ch
id ene
Ġpol yc
Ġpy rimidine
Ġredu ction
Ġy unn
phing osine
ar ab
Ġt ract
ol ata
ot ry
ĠM agn
lact am
Ġstudi es
Ġvers icolor
va ric
ut um
roch emical
as c
Ġthe y
re c
ord ers
Ġnucle otide
Ġabsor ption
Ġmo dul
Ġ1 3
Ġbenz oth
Ġtrans fer
Ġf o
ite x
Ġle uc
oph yton
Ġsynth ase
E R
a il
e ch
k ii
ar t
Ġrespir atory
ur ed
Ġb one
Ġdi varic
yll us
Ġmater ial
Ġd ens
yl ation
gen eration
Ġdrug s
Ġco ron
Ġvir g
l l
ang ium
Ġcur r
Ġgast ro
el in
ich rysum
ĠM elia
Ġag rochemical
oh al
iflor um
ĠHel ichrysum
Ġcate ch
4 2
a u
o a
ĠM yr
ĠG ymn
Ġbenz imidaz
Ġter minal
Ġc iner
ffic ac
Ġpro t
ospor in
Ġalb id
ĠCent aurea
Ġresist ance
Ġyunn anensis
t is
Ġb is
el ial
Ġsh ort
Ġgrac ilis
Ġalbid oflavus
Ġf us
om al
ran e
est al
cul ata
Ġins ulin
Ġly mph
Ġcholest erol
N CCCN
f us
Ġth ose
or y
Ġwall ich
3 6
i at
Ġn em
ar rh
om it
Ġre qu
Ġ1 8
ad a
Ġsubst ance
ĠR eceptor
Ġolef inic
at etra
du m
ĠP I
ĠSt em
ĠAn t
Ġbra in
i ella
en th
ens it
Ġph yt
Ġhe at
prop yl
7 0
A R
Ġc och
Ġphosphatid ylethanolamine
Ġcaus ed
oxygen ase
Ġsur v
i ency
Ġf ul
Ġo p
es p
ar ix
Ġre g
Ġk idne
Ġodor ata
Ġi ron
ĠP run
ĠH ym
idu s
Ġprim arily
low ing
ĠPhys alis
5 3
c y
g ative
Ġh eart
Ġhetero tetrac
Ġinst ances
Ġcomm erc
Ġheterotetrac yclic
Ġm acroc
ĠV ap
ospor ium
Ġglucos iduronic
Ġp ept
ct ase
re en
om um
benz yl
oumar in
Ġconcentration s
ĠQ u
Ġs in
CN CC
Ġbr uc
Ġhist amine
O CCCC
Ġm ad
ac il
Ġre lax
op odium
ig u
ap p
CCCCCCCCCCCCCCCC CCCCCCCC
eroc occus
ĠP l
ad renergic
ri es
ri ana
Ġmon och
ĠMagn olia
ohal ogen
y len
Ġc oun
yl v
am b
Ġang io
Ġmil d
flavan one
Ġdam age
] .
ic arb
Ġs ke
Ġs ylv
ynth esis
int estinal
Ġd ichlorobenzene
Ġn ormal
ide press
NCC SC
but yl
Ġanim als
Ġc ir
-] [
-] )(
Ġcer ana
Ġsec retion
perox y
N CCCC
d ione
Ġd om
om ega
ĠP estal
Ġex er
ati le
Ġcaus ing
Ġmix ture
aem p
la se
Ġorgan ohalogen
och rom
dul is
ĠAch illea
ynd rome
Ġb ecause
ĠH yp
m at
ĠC e
Ġaer ug
Ġbruc ei
ĠA t
methyl hexadec
ob rom
i od
Ġ 0
ad irach
Ġrel ative
Ġbi os
iph atic
Ġchann el
Ġsurv ival
ol ide
ate let
Ġbrom ine
i ro
un ic
Ġcomp et
ĠM y
ob ut
ogen ous
Ġrad io
r ate
Ġp ress
ĠC le
Ġal iphatic
ĠB ri
in du
Ġs aturated
ĠE n
Ġant idepress
Ġspecif ic
Ġincreas es
oti opsis
Ġi od
ĠHeli anthus
nd ed
ĠT rypan
Ġindu cer
ay a
ĠX y
5 2
b ility
k ing
u al
Ġg ib
ĠP le
jug a
gen esis
Ġblock ing
ĠMic roc
aps icum
ĠVap ors
adirach ta
Ġf lam
ar eum
or der
or gia
act ing
est ris
Ġinter fer
Ġinvestig ated
tens ion
Ġrespon s
ĠAz adirachta
ĠPrun us
Ġaerug inosa
ĠBri areum
ro ides
Ġc inn
Ġas per
ron g
ty pe
ost oc
Ġter reus
Ġbre v
steroid al
Ġmajus cula
Ġgastro intestinal
c op
ot rich
ill osa
ros ide
Ġpar as
Ġde hydro
vi er
ĠSen na
Ġanim al
Ġbelong s
ĠTrypan osoma
Ġp enicillin
om eth
am oyl
ind ing
Ġdis orders
Ġsign ific
Ġpres ent
k s
Ġf lor
Ġt em
ol us
ac etic
ĠP CBs
ri al
Ġv isc
ĠH ed
Ġcor tic
Ġparv iflora
Ġp al
or e
Ġt e
ure us
Ġlan ce
fficac y
Ġa ffect
om ycin
light ly
Ġantihyper tensive
c ers
d en
Ġa dul
is p
al ine
Ġand rogen
op per
ig atus
ulf onic
iss imum
Ġmanufact ured
Ġperi ph
ĠXy laria
i e
y o
Ġf ru
ol ate
il laria
iflor us
Ġep oxide
Ġphosphatidyl inositol
Ġmonoch loro
Ġf ib
Ġd end
oc yt
Ġco ord
utic osa
g ic
y i
Ġm el
Ġp s
id al
ot in
por ted
ĠAl b
Ġpub escens
b e
l ing
oph ylla
Ġpent asaccharide
al dehyde
Ġf ur
ph is
ĠC o
ĠV itex
Ġser ine
Ġdec rease
Ġaf ter
almit oyl
ch olinesterase
ĠS ta
oph yt
ĠV ale
Ġcent re
ĠTa iw
Ġwallich iana
7 6
I D
Ġa ust
le ur
en ium
ĠL act
ĠE uc
ĠB os
Ġredu ced
ych otic
Ġaf ric
i gan
ĠC yst
Ġl ignan
ĠM ed
ran g
ell in
galact opyranose
Glcp NAc
Ġameric ana
et um
ĠSt eph
Ġgu a
Ġmulti f
Ġer ect
ĠPestal otiopsis
Ġpress ure
p roline
ol ipid
ri folia
ĠN ostoc
ĠV ib
phenyl alanine
amn us
al t
ic aria
ĠI m
Ġlead ing
Ġimmun e
ĠSteph ania
b rom
er in
om ic
arp us
Ġsignific ant
ĠVale riana
Ġhea vier
esth etic
Ġcondition s
rec eptor
ro f
ic e
ch olest
ĠS ym
pec ially
urn um
ĠSarc ophyton
u ron
id one
ang a
Ġneu ron
Ġmonochloro benzenes
Ġp oss
Ġd odec
Ġo v
Ġc oumarins
us ena
ĠM il
Ġch al
tain ing
ton ia
Ġindu ction
Ġsc ab
Ġpul ch
Ġprocess es
ĠCla usena
Ġde gra
meth ane
- )-
r il
CCCC O
Ġb ann
Ġdi rect
Ġdis ru
olin ergic
N CCCCC
Ġc yan
ĠC innam
ul osa
ĠP lan
ĠE ug
og on
Ġvol atile
Ġpest icide
Ġoverexpress ed
Ġcr ust
Ġm ana
Ġis omer
Ġf la
Ġd ich
em ma
am yl
ĠB acillus
ĠAl though
ĠPh yl
ed arach
Ġaz edarach
ĠPh ase
con t
Ġend oth
A K
c ell
ĠAn gel
Ġja van
o lecu
Ġ ble
ber ellin
ĠD ys
cum ul
fic iency
af ety
car nitine
odiaz epine
Ġangio genesis
Ġbann ed
C V
Ġes pecially
Ġcarc inogen
d ichloro
(= [
er ally
ther a
ĠU nit
Ġneu rop
ĠUnit ed
2 7
o z
ino le
glyc ine
Ġbenz ene
Ġtr iazoles
ogen ic
Ġracem osa
Ġo st
Ġc annab
ar inic
ĠS olid
rom b
Ġl ig
ĠL ept
Ġtiss ues
Ġstere oisomer
x yl
Ġ ed
le b
om opsis
ig in
anth em
Ġcer amide
mon ary
ĠDicty ota
Ġrap id
ĠCe last
ĠPhyl lanthus
i oc
u lant
Ġw ea
ĠP t
ĠL yc
ĠAp lys
ĠEry th
Ġ ut
Ġ rig
at o
on ella
Ġt aste
ole oyl
al ia
es ter
Ġadmin istered
Ġindic ated
ĠAngel ica
h ist
v uls
Ġ lycop
ct rum
CN S
Ġres ear
Ġmon om
par ag
las h
Ġfum igatus
Ġphys iolog
Ġaff in
Ġf lu
Ġd ial
ir ed
Ġ3 0
phosph atid
ĠTh ali
Ġlong ifolia
lamm ation
ĠDaph n
Ġcoord ination
ĠThali ctrum
p ath
Ġp e
Ġp yran
Ġn ut
it ed
ol u
ĠI l
Ġh yg
Ġg inseng
Ġ( +)-
Ġal d
ell ata
Ġanti m
Ġsp ic
Ġmon tana
Ġtri phosphate
len a
ca roside
Ġoxid ation
Ġb as
Ġcon tact
av e
h e
m yo
o glyc
Ġd ense
Ġre f
im us
Ġinhibitor s
its ea
Ġsur f
Ġa v
Ġs ene
Ġt ra
osph a
ath ione
Ġsystem ic
Ġantidepress ant
leur um
Ġapprov al
d isia
g a
Ġch rys
ĠN ocar
CS CC
ĠMicroc ystis
c ycl
i ev
o al
ĠW h
ps ychotic
Ġperiph eral
b il
Ġan a
ia e
ĠSt ach
ĠG ABA
Ġk aemp
yn e
Ġcell ul
Ġhetero pent
itr ate
Ġhyper tension
Ġmain ly
Ġheteropent acyclic
c ysteine
th io
ct a
Ġo ut
ĠIt s
ab ilis
ĠAr disia
Ġredu ctase
Ġglob osum
ĠCelast rus
) =
le ucine
on t
ĠI lex
ĠC yn
Ġag g
Ġp erox
en ed
Ġg ene
ĠL ob
ĠH um
ĠSt ates
ket ide
iph yllum
otri ene
Ġobtus a
Ġorient alis
Ġexpl os
N CCN
Ġ umb
Ġm ig
Ġnatur e
Ġg erm
Ġe dulis
Ġr at
ot rans
av ir
eno th
Ġde oxy
aly pt
Ġmuc ous
Ġcurr ently
Ġresear ch
iv ed
ep oxy
ĠAs cle
Ġoccur ring
Ġbro wn
opyr idine
stit uted
f atty
Ġf urans
Ġd iglyceride
ar ial
ol d
ĠC l
Ġe ach
Ġus ually
Ġanti p
oph ila
ĠPh omopsis
ĠCh lor
iss ion
Ġinf lammation
pi as
Ġelement s
Ġbenzimidaz oles
ĠAscle pias
C a
id i
oc ortic
ĠB et
hydroxy phenyl
lic ium
ĠO ph
indu ced
9 0
ro g
en ine
ĠC rypt
Ġbios ynthesis
ĠIl licium
Ġp o
Ġn ov
ĠC lad
ĠM et
Ġ2 1
ros ive
Ġar ach
Ġpl atelet
ven ous
Ġcommun is
4 1
Ġin it
ero p
Ġter min
Ġqu erc
Ġdibenz ofuran
Ġcephal osporin
ide oxy
Ġchlor inated
ĠDi osc
Ġlow er
ĠDaph ne
Ġgrand iflora
Ġgran atum
Ġformos ana
Ġparti cular
ĠDiosc orea
ro yl
ph rine
ĠL euc
ĠU DP
ĠRhod odendron
Ġannu um
ur al
it al
ĠP od
op us
Ġph ot
ym us
rob ium
Ġgla nd
Ġmanufact ure
ocon stri
Ġpinn ata
d o
j or
p ol
Ġ ul
on ch
Ġc l
es ium
ia d
ĠM ost
ĠCh ama
Ġinf lammatory
ops ia
Ġ( -)-
Ġst rong
ĠK opsia
Ġprote ase
Ġspecif ically
ĠDaphn iphyllum
Ġ icos
ur etic
Ġac r
im ed
Ġph ase
icul atus
glut amic
Ġanil ine
Ġmo der
Ġpro g
Ġb acc
de hydro
ian us
mal arial
s ugar
Ġm uric
er cu
it ic
ros a
ator s
Ġchem other
yla c
vas cular
ĠRub ia
Ġm u
id ia
as ter
as phing
Ġor th
ocarp a
ĠVib urnum
ĠEug lena
Ġp um
ĠD rug
Ġalb um
Ġprol ong
yb otrys
Ġvin ifera
ĠAb ies
Ġdiaryl methane
5 0
Ġ ign
ri z
op o
ĠT r
ĠG ent
ĠAn th
con es
idin ium
Ġend ogenous
Ġbr id
Ġaller gen
Ġtin ctor
ocosa hexa
ĠSt udy
Ġbenz ofurans
methyl but
Ġindu stri
Ġ20 0
Ġ199 9
Ġdise ases
activ ated
ĠMa jor
is ion
es ia
ra x
ad ily
ect or
benz oyl
Ġtri hydroxy
ang u
Ġme lan
Ġmono hydroxy
vers ion
Ġsqu am
Ġcommerc ial
a us
b etes
Ġm ass
ol f
ĠA juga
ĠC apsicum
Ġpre par
yclo hex
is ch
ar in
am ycin
ĠG n
ros cop
ov ir
Ġnucle ar
oisomer ase
Ġinte g
al um
Ġredu ce
hydrox yd
ilob a
regul ated
Ġlycop ers
b us
al anyl
Ġs ib
ĠT oxic
ĠCyt ochrome
Ġarach id
Ġlycopers icum
b icyclic
Ġs yndrome
Ġb ip
ĠA loe
ind ol
ĠIn soluble
glucu ron
Ġdegra d
g ement
Ġm es
Ġn ap
ĠC ist
Ġph thal
ĠB re
Ġhydro carbon
Ġele ct
Ġindividu als
alypt us
p ositive
er cus
an ica
Ġro ot
ĠL up
rop e
rans m
dia c
Ġhetero bicyclic
Ġorganosulf ur
Ġcocc inea
Ġpolyc yclic
ocortic oid
Ġf ew
du n
ig it
Ġsp in
glyc oside
cur sor
Ġz inc
Ġup on
rodu ct
sp ectrum
aspar tic
Ġintra venous
Ġciner ea
ĠQu ercus
3 8
9 9
O R
g us
n on
Ġs phing
ion ic
st ere
ĠP ter
ti folia
ĠE GFR
ĠN on
rop s
Ġint racellular
Ġalb us
Ġbr as
Ġpathw ays
Ġtetrac yclic
ĠCDF s
ĠStem ona
ĠEuc alyptus
Ġhyg roscop
Ġmuric ata
A MP
y ros
Ġ Ġ
Ġf ire
Ġd ys
Ġcon version
ation al
ill in
Ġanti psychotic
ract e
aly x
Ġtop ical
Ġgris e
' .
k ins
Ġ cuspidata
Ġc of
ĠS or
ron e
ĠEu rope
raz ole
Ġsem is
Ġcortic osteroid
Ġant it
und a
Ġhydr ate
Ġanil ide
rel ated
Ġpyrim idines
BP s
ĠCinnam omum
otrans ferase
Ġc ere
re lla
ac in
act yl
og ra
Ġpre cursor
Ġcor n
Ġmono phosphate
ĠAc anth
Ġrespon se
Ġsimp lex
ĠEle uth
v in
w h
Ġre adily
ĠP ap
Ġcarb am
yp e
Ġdis order
oth ec
ath ar
Ġanth rac
trans ferase
Ġstudi ed
a hydro
Ġth ym
Ġs ite
Ġre ported
Ġam b
ab ly
Man p
h am
ic in
Ġc ob
ed s
am ental
Ġanti malarial
Ġmet ast
Ġtetra hydro
link age
Ġtem per
Ġa ut
Ġo s
Ġl ute
ĠF lash
ois on
Ġphosphatidyl glycerol
ĠBet ula
Ġp las
on vuls
phosph on
Ġad renergic
Ġob s
Ġincreas ing
Ġanth ocyan
Ġneurot ransm
sub stituted
Ġcof actor
U SC
Ġc lav
ĠA TP
ell ipt
ag o
ĠLup inus
ĠEleuth erococcus
USC G
m ember
os perma
yl ate
st ry
CCCCCCCCCCCCCCCC CCCCC
ĠAn tagonist
Ġnig er
Ġamin otransferase
Ġ if
is oflav
Ġc ris
yl ated
ec k
eth ylamino
ib ly
Ġactiv ates
Ġindu stry
opt eris
Ġdecreas es
erat ina
ĠDend robium
Ġjavan ica
em is
Ġl up
ĠN o
ĠB up
Ġgra ve
Ġantic onvuls
Ġgrave olens
h om
an acet
or ia
up press
Ġv el
Ġca rot
ast rum
Ġdecreas ed
Ġpyridine carboxamide
Ġros ea
Ġsed ative
Ġmana gement
ĠC r
od ies
im etic
Ġst ill
Ġsp ectrum
av iral
og orgia
cur b
oun saturated
Ġantic oron
Ġrub escens
atri enoic
Ġendoth elial
Ġanticoron aviral
g amma
is ed
Ġo l
Ġc av
Ġob long
cer amide
Ġso il
ercu ry
3 9
c al
i et
n s
Ġs our
OCC NC
Ġl oss
Ġma gn
Ġmon ounsaturated
dia m
ĠCh rys
Ġdehydro gen
ĠStach ybotrys
Ġm ust
ĠA nd
op rotein
Ġph armac
Ġst em
Ġsub sequ
av er
iz e
Ġpar t
Ġexer ts
Ġhygroscop icus
Ġsemis ynthetic
n ess
p rotein
Ġf und
Ġcomp ris
ĠT anacet
Ġsulf o
oph en
Ġmin or
ĠDi osp
for e
ET E
Ġtop oisomerase
ĠDiosp yros
T R
Ġs yr
Ġr enal
ĠB ruc
ĠG r
con taining
Ġther apeutic
Ġmin er
Ġtetra dec
Ġprost ate
Ġimmun os
express ing
Ġdend ro
Ġp oison
Ġc yano
re am
ce us
Ġcan cers
Ġ20 9
ĠAg onist
ĠX anth
mal ian
Ġmetal lic
Ġdia gn
Ġpul monary
Ġminer als
b ased
ph yl
ra quinone
ĠD rac
imidaz ole
Ġimidaz oles
Ġcontamin ant
Ġfund amental
k nown
m ea
t ryptophan
in ib
Ġd ocos
Ġn ob
ĠD ens
Ġdep ress
Ġpoly ketide
iph on
Ġchar t
osm is
anthem um
Ġanticonvuls ant
ĠBruc ea
Ġdendro idea
Ġ2 4
CCN CC
Ġdi et
galact osamine
Ġqu ant
Ġarg ent
Ġfr uticosa
Ġdial k
as h
Ġg ram
ti cum
Ġaction s
Ġprost anoid
ĠBup leurum
b inding
Ġb ar
Ġas caroside
ĠD ip
Ġglyc ol
len sis
Ġloc al
Ġcam phor
ĠPic ea
Ġagg reg
Ġdegrad ation
D H
N OS
s il
ĠH y
anth r
Ġdim ethoxybenzene
Ġmedic ine
Ġchann els
Ġnec ess
Ġlance olata
i or
in ica
ĠC lav
Ġva n
Ġcons ider
Ġphosphatidyl choline
ofuran ose
Ġfr ut
ĠDis e
Ġbenzoth iazoles
Ġin g
ox icum
Ġcon n
ig era
ĠL ep
ap renyl
lo phyllum
di en
Ġactiv ated
ost emma
ĠJ as
Ġret iculata
ĠGlyc osmis
ĠCal ophyllum
ĠTanacet um
ĠG ard
Ġanti gen
benz oate
Ġblock er
ace us
Ġcombin ed
member ed
A P
g ed
Ġc opper
ĠI MA
OCC OC
ĠD ec
Ġcar ries
Ġredu ces
Ġcal led
obacter ium
ospha eria
5 7
o vascular
Ġp a
id ence
Ġth romb
ot ope
Ġch el
lam p
ĠIn c
van ced
Ġglut athione
Ġmam malian
Ġcarbam ates
Ġing red
la e
as ites
re ad
Ġg all
Ġro ck
im ic
ĠV inc
Ġacu le
Ġion s
Ġvas oconstri
ĠRhod iola
Ġdifferent iation
M g
i er
Ġis oflav
reas ed
eros a
Ġleuk otriene
arab in
0 5
i op
m i
n ary
oc y
ane ous
thr itis
ĠPap aver
Ġp et
en in
Ġan x
Ġs ul
et oxicum
om et
ra diol
Ġam ong
ter p
Ġres or
Ġdi ol
Ġle av
Ġne ed
enol ide
Ġme ans
Ġexp ress
but yric
argin ine
ĠVinc etoxicum
A T
Ġ Y
is omer
Ġm ult
Ġp il
an thera
Ġth ough
or ium
im al
Ġtr icyclic
Ġdif f
ĠPet asites
Ġsil ver
Ġdivaric ata
stere oisomer
t ures
Ġd ul
Ġc ases
Ġc innam
ch rom
ĠS ub
Ġal tern
Ġam p
yn apt
Ġear th
a S
s pec
Ġ uptake
Ġb la
up er
ot oma
Ġro se
ind elia
Ġar rest
Ġins oluble
Ġpent aph
Ġkidne y
ĠSor angium
ĠGr indelia
S e
Ġa by
Ġd T
va ria
ic ia
ĠI nd
ĠP a
NCC S
Ġad j
ang ifera
Ġnem at
Ġrelative ly
ocyt es
Ġos cr
Ġnecess ary
Ġaby ss
la dus
Ġf il
an il
Ġth us
Ġv iola
di ene
ĠAs parag
rac ea
ater nary
pyr rol
Ġindu ce
ort is
ĠAst er
apenta enoic
inch inensis
Ġcoch inchinensis
methylhexadec asphing
Ġflor ib
Ġpro v
ot oxin
Ġaffin ity
t ilis
atur a
op ol
ir d
Ġsp ect
usc ept
Ġgen eration
epine phrine
ĠHap lophyllum
ail ure
# [
a ena
Ġf uran
Ġs lightly
ar iensis
ĠD atura
Ġmet als
ific ation
Ġsene g
3 7
d iglyceride
in ol
Ġn ip
ist ant
ĠPh ell
Ġrep air
ĠCh ronic
Ġun it
Ġacu min
Ġxanth ones
Ġcardi ovascular
ĠGent iana
Ġseneg alensis
b ur
on oyl
Ġthe m
ist ic
NCC O
Ġole ic
bran ched
tic ill
Ġmusc arinic
phen oxy
armaceutical s
e u
e ly
an ed
Ġan is
ra ction
ĠM angifera
ĠN S
ĠB ro
iz es
Ġim aging
Ġflav us
inn amic
Ġhigh er
ĠPhase olus
Ġf at
Ġs w
Ġt ex
Ġe fficacy
Ġma le
ment s
ĠO c
ys is
Ġhydro ly
Ġcor ymb
olar is
Ġchal cones
Ġconsider ed
Ġac etic
Ġr ug
ĠL ess
ad ensis
ĠG yn
Ġdis ulf
lad ium
ĠWith ania
Ġerg ost
ĠChlor anthus
kins on
Ġf re
as p
Ġh az
ĠL ind
Ġph enoth
ĠB r
Ġla ev
Ġtri peptide
Ġne w
Ġsta ble
ĠPla g
yro id
H IV
c ata
u rop
at omic
om p
arb onyl
Ġsp inosa
Ġbre ast
Ġpr enyl
Ġpers ist
Ġplas ma
+ )
i va
k el
m it
Ġpro gest
Ġs us
ĠS ider
ĠP ers
op app
ĠH CV
Ġla bor
ĠR a
quin ones
Ġtrans ient
Ġqu aternary
Ġdich otoma
ĠSider itis
e ous
o pha
Ġh ar
ec yp
ino ides
)- (
Ġspec iosa
ost ic
ĠPh yt
Ġinclu de
Ġrib onucleoside
orph yr
Ġost e
ĠGn etum
Ġabyss inica
a R
b a
Ġprodu ce
ar ed
ĠL ys
Ġwh o
Ġdep ression
@ ]([
R A
l ine
r atus
Ġm yr
Ġwith d
Ġb u
ĠF rit
por us
iss us
glut amyl
Ġthio ph
ux us
Ġcat al
otrop ic
Ġparticular ly
Ġindustri al
8 0
er tia
am ines
ĠC ase
Ġen ol
och ond
Ġvulg are
Ġafric ana
cumul ate
Ġneurotransm itter
m ia
r ica
Ġf lavan
Ġd in
Ġs ix
Ġs uscept
Ġh yd
ri er
Ġmetabol ic
ary a
ff e
ola c
meth ionine
Ġannu a
ĠXyl opia
Ġphysiolog ic
opapp us
ĠFrit illaria
T K
o ver
Ġs ie
us a
Ġg igan
ĠP atients
Ġl ut
Ġl ife
ĠH uper
ĠB o
di p
Ġox ides
iz er
Ġdis s
Ġbi ological
Ġgluc ocorticoid
pi ro
Ġsem per
uss on
Ġirrit ate
Ġreaction s
Ġfrut escens
ĠCase aria
ĠHuper zia
ro pha
osph ing
tag e
ophyt um
Ġhaz ard
Ġin n
Ġs ag
ar ate
ĠS arg
Ġv illosa
ĠB uxus
Ġcor e
Ġsh ow
mann o
Ġpurp oses
Ġcytotoxic ity
Ġquant ities
P b
j ect
Ġt urn
Ġas cr
il laris
ot e
ĠL onic
ad en
lic ated
Ġsm ell
omo dul
ket one
Ġimmunos uppress
ĠGard enia
ĠLonic era
e h
m olecu
â Ģ
ic idal
Ġcon gen
ens itive
ea royl
Ġad ren
of lavan
Ġclass ified
Ġmed i
let tia
Ġoxid ase
Ġsta bil
ĠMil lettia
ĠDrac aena
- ,
L T
c olor
Ġe ight
ĠB otry
oxyl on
ĠAg e
yla se
ĠMed ica
Ġp lan
en ing
Ġorgan obrom
ĠL otus
lan es
Ġdi uretic
acter ium
mon ia
lect ive
Ġmar it
Ġur ine
ĠCor yd
Ġcycl od
Ġcholest anoid
vir ens
ĠDia por
Ġtest osterone
ynapt ic
ĠdT DP
Ġsemper virens
E GFR
b ens
s ii
Ġf lex
ul b
im b
+] .
ry lamine
glyc an
Ġar ter
ord yc
Ġimmun omodul
Ġfluor es
Ġplastic s
ĠMedica go
c aria
le ton
er iana
Ġc rops
Ġs we
Ġg ard
ber g
ĠP ae
ĠU varia
Ġmic roc
Ġfung us
Ġacetyl choline
Ġinterfer es
Ġchart arum
ĠCoryd alis
ĠDiapor the
ordyc eps
ĠPae onia
7 9
L K
es m
Ġan y
Ġs et
op urine
Ġl itt
res istant
ĠR osa
ĠF icus
cum bens
Ġgran ted
fuc osyl
Ġmoder ate
Ġsquam osa
Ġroot s
Ġf ailure
am id
Ġg enes
Ġas iat
ĠC er
il d
Ġma king
ĠG e
Ġare as
ost achys
sulf anyl
Ġbra nd
val u
Ġp at
Ġac ross
ĠC annab
Ġser rata
Ġhex asaccharide
phosphatid yl
Ġprolong ed
m an
Ġm ang
al an
Ġd emon
en us
re a
ĠL arix
ĠCon tact
ĠSarc oc
) ]
p ro
in ase
ĠA x
lic ations
ĠIn ula
iaz ines
Ġab ility
Ġexpos ed
Ġpr ed
Ġhyp oglyc
Ġprevent ion
Ġmorph olines
Ġcompris ed
ĠPhyt olac
ĠPhytolac ca
T OR
Ġp apy
ent ially
ĠS a
ĠS ant
Ġ2 5
ĠU S
Ġpyr rolo
fer i
ĠSal acia
usti ble
Ġpla y
Ġwe ight
argin ata
otrich um
F uc
Ġis o
Ġbenz odiazepine
ĠO x
ĠAl nus
Ġnic ot
Ġlig and
Ġingred ient
Ġfre qu
Ġdemon st
Ġb racte
om ord
om imetic
ot ria
ĠM omord
Ġphosph o
Ġser ic
Ġvir idis
Ġglut inosa
Ġchrom ium
ĠHe alth
Ġcharacter ized
Ġorth o
ĠBro usson
ĠMomord ica
ĠBrousson etia
v illea
at ter
Ġmo ll
Ġp ale
ic l
Ġe vent
oh ex
ma ble
ass um
erv ed
Ġpan c
erat rum
Ġsom n
Ġsativ um
igit alis
Ġdehydrogen ase
ĠSarg assum
k t
l ata
os aminyl
ph an
Ġg reen
oc er
Ġcomp ared
Ġam ur
ĠT eph
Ġox ac
ĠV eratrum
Ġva por
Ġ19 70
cul ture
Ġeth anol
pent a
piper idine
Ġmix tures
Ġhydroxyc innamic
Ġnov el
ellipt ica
N CCCCN
i era
m s
s phingosine
Ġis opropyl
Ġo ch
Ġc ren
Ġt an
am p
ĠC ast
ult ra
Ġund erg
fun gus
tr iazine
Ġnerv e
Ġstra ight
Ġsylv estris
Ġcellul osum
ĠLob ophytum
f en
o ensis
in ii
ar ene
yl ind
om b
ĠA lan
ut er
im er
im es
og inseng
prop an
vers e
onucle otide
Ġhexadec anoic
Ġmultif lora
Ġbrid ged
ĠDise ase
on is
Ġcon stit
ĠL ag
phosph or
ano fungus
Ġpre gn
ĠAd min
rox yl
Ġdiv ision
Ġrotund ifolia
Ġcinn amate
Ġadul ts
ĠTaiw anofungus
D E
d is
d ideoxy
Ġb lu
oc yclic
Ġsalt s
cin ium
anch um
Ġcitr inum
ĠCyn anchum
Ġconn ected
Ġdul cis
ĠAlan gium
4 0
c an
n i
ro w
as piro
ep at
ce um
Ġta urus
Ġep oxy
our ing
Ġpyraz ines
Ġenh an
ogra phy
Ġcob alt
Ġcamphor atus
Ġof f
it ively
os erine
ĠC rat
Ġor igin
Ġre uptake
Ġr ange
Ġl inole
Ġex ist
anth ine
Ġsc op
Ġsc av
ĠAct ivity
gu an
Ġleav es
ith er
Ġs uccin
Ġt uber
ĠI r
ĠC arp
Ġv al
ill ogorgia
CCCCCCCCCCCCCCCC CCCCCCC
rop is
galact opyranosyl
tag o
Ġy ears
Ġole oyl
Ġfol lowing
Ġmedic ation
Ġmit ochond
ĠAnt illogorgia
Ġske leton
Ġrespons ible
ĠLact arius
Ġwithd ra
Z n
os te
con ta
Ġint rodu
rib onucleoside
Ġmet all
ord ing
Ġole racea
Ġnig ra
tetra dec
Ġrub ra
ĠActin om
Ġcord ifolia
Ġvasodil ator
Ġgib berellin
Ġfur ther
R NA
l omer
Ġwith out
as tere
ĠC y
ĠC ephal
Ġ2 2
Ġother s
Ġact ing
ĠO ther
Ġter n
Ġpar a
sulf onyl
Ġhe ad
Ġqu ass
glut amine
Ġhyp og
Ġmy el
Ġgast ric
Ġcou ld
Ġwea k
Ġlabor atory
p la
Ġin activ
ou ld
id yl
os ma
Ġe v
Ġsub un
Ġmon t
ach ya
por ter
Ġab und
Ġab out
oquin one
Ġpres ence
link ed
Ġpolymer ase
Ġquerc etin
Ġcongen ers
ol oma
ĠC ass
ĠM al
ĠD igitalis
mon y
der ived
Ġsc le
Ġphenol ic
Ġmulti ple
Ġcoun ter
Ġneurop rotective
Ġflorib unda
n um
o idea
s in
u les
ĠC athar
ĠT ri
ĠV ac
ĠU l
rib ose
mann ia
Ġcyt ok
ĠAc acia
Ġsequ entially
ĠAm ph
Ġel ata
Ġleuk emia
ĠPla k
Ġwor ld
Ġchemother apy
C R
Ġp op
ic k
ac r
ĠP ent
Ġam monia
ran th
iz ia
iz oph
Ġter rest
raz ine
Ġbio ac
ĠPl at
Ġneuron al
ĠAsparag us
Ġdisulf ide
ĠCannab is
Ġoxac ycle
4 8
d es
g th
r ast
Ġ ident
Ġm us
er ica
Ġc ef
st erol
ist ry
ad ura
ĠT rig
Ġtrans du
Ġproton s
aly z
Ġver ruc
ĠDaph nia
iform e
Ġnor epinephrine
Ġrequ ired
ĠAlb izia
Ġdisru pt
ĠTeph rosia
Ġscav eng
ĠActinom adura
] =
l ia
Ġd oses
er um
Ġand rost
ĠS h
ra ea
ap pa
Ġcan adensis
Ġdia m
Ġhal f
val ine
ĠChama ecyp
wh ite
Ġsuscept ible
ĠChamaecyp aris
th enium
Ġp t
Ġd ent
CO N
or rhiza
as ily
ia cea
ĠC ale
ul is
ĠP is
od ia
ir ica
ĠT in
az epine
benz ofurans
Ġbeta ine
iss a
Ġsym path
anch e
Ġaqu eous
Ġnap us
Ġaggreg ation
Ġresor cin
Ġsie bol
ĠVac cinium
c yclic
d ocos
l um
Ġa rab
ul ose
uch res
Ġoxid ative
Ġup regulated
Ġstimul ates
Ġhepat itis
-{ [
Ġsativ us
Ġcatech ols
Ġtemper ature
ĠLind era
u j
Ġm g
or ub
or por
ĠP ul
ri ma
Ġex cess
ne um
ne uramin
Ġcar diac
ĠPh oma
ĠCh rom
Ġbut an
chlor inated
Ġglycosyl oxy
Ġseroton ergic
ĠEp imed
oxaz oles
Ġcompet itively
Ġarachid onic
Ġthioph enes
Ġorganobrom ine
Ġasiat icum
ĠEpimed ium
. ).
s ol
t al
iv es
ox ins
ĠS yz
oc ard
ell um
ĠB y
ag on
Ġad verse
Ġne ut
Ġpyr id
ĠX est
Ġqu ad
ĠCr inum
ĠAge las
ĠCathar anthus
C E
b l
in aria
ro genic
Ġp en
Ġf low
ĠC u
Ġam ph
ano a
ĠV erb
Ġne gative
fol ius
Ġfactor s
Ġcycl oprop
ĠXyl ocarpus
Ġpept ido
Ġut il
ĠCrat oxylum
Ġ ultra
ĠL am
ĠB erber
ĠG al
anth es
Ġsynth es
Ġgen erally
ple d
Ġtuberos um
Ġkaemp feri
Ġbras il
ĠXest ospongia
A n
d a
ur ica
or is
Ġe ither
ti p
Ġex per
etic s
ost emon
rot ub
Ġtox in
Ġtenu ifolia
ĠWh en
ĠPod ocarpus
Ġobs erved
ĠPlak ortis
Ġbioac cumulate
ĠBerber is
m ans
Ġp unct
Ġs low
Ġb icolor
ĠP ep
Ġcon fer
ĠE ur
ĠH yd
ĠB ur
Ġex te
ach yc
Ġtri fol
Ġinc orpor
loc a
Ġnit ros
yla rylamine
Ġflam e
ocy te
spec ific
Ġevent ually
i ri
ic osa
it er
Ġe ye
im ide
Ġst ate
benz opyran
Ġhydro peroxy
ass ociated
carb onyl
Ġper uv
Ġnit ric
Ġars enic
A c
C u
le as
ro les
Ġb ased
ac eum
ĠA f
Ġor b
ich orium
ĠM ik
ĠE chin
ĠN ig
ĠB ecause
Ġant is
Ġar v
ver ia
Ġde ficiency
Ġpoly chlorinated
ĠRh iz
lad der
Ġcyclo oxygenase
Ġbrom ide
Ġirrit ation
eps ipeptide
Ġresist ant
ĠPs idium
Ġdialk ylarylamine
ĠMik ania
S H
p os
r atum
it rile
Ġt ur
ĠC ichorium
ĠL il
Ġk o
Ġtr un
Ġanion ic
Ġund ec
tri methyl
Ġgla uca
Ġall ylic
icos atetra
Ġinsect s
Ġalkyl ating
atri x
hist idine
Ġsib irica
C T
z ii
al aria
Ġf asc
it u
Ġs a
ed e
ell us
ĠTh aps
Ġhydroxy methyl
Ġpre c
bi phenyl
roph ularia
Ġsup ple
ĠSc rophularia
ĠSw iet
erom ia
terp enoid
ĠPep eromia
ĠThaps ia
ĠSwiet enia
i as
Ġan esthetic
ĠS ome
ĠC ry
Ġsp ong
ĠO sm
io ic
Ġlong er
Ġnucle ob
Ġvari eg
arc otic
rif era
Ġspect abilis
6 4
r amine
Ġm acrocycle
Ġf alc
ata se
Ġh owever
ec arboxylic
+] #[
Ġla x
Ġamino glycoside
ĠPh armac
Ġadd ed
Ġret ard
Ġly sis
Ġimidaz ol
Ġabsor b
Ġcat alyz
Ġswe et
Ġnucleob ase
h iz
ic yclo
an ium
it us
Ġth ird
or alis
Ġh or
re vers
el t
ĠP e
ĠP yr
Ġag ri
ole ucine
CS S
CCCCCCCCCCCCCCCC CCCCCCCCCC
ne gative
end ula
eph ala
Ġoc c
oquin oline
alk ane
Ġhist ological
yb e
p almitoyl
st atin
Ġal ata
oc aul
Ġv en
yr s
ĠO f
ros pora
Ġj un
tri hydroxy
Ġ[ (
Ġinsect icides
ĠPic ras
Ġarbor escens
ja va
Ġtuberos a
Ġgua java
ĠClad osporium
Ġexpress ed
ĠPicras ma
om ethyl
em etic
Ġv iv
lo ch
ĠF ood
Ġphosph odies
Ġz ey
els em
ĠCan ada
Ġpyrrol idine
olen t
Ġarbor ea
iam ine
ĠAnth emis
Ġexte nded
c ement
d iaz
r alis
in is
ro de
Ġp almit
Ġal ter
Ġal low
ĠG elsem
ulf onate
Ġk ill
Ġind icum
hydro us
acyl carnitine
Ġflav ouring
Ġnot oginseng
ĠRh apon
Ġpiper idine
uf o
uss urea
Ġmut ated
ĠII I
Ġfluor ine
Ġpolyp eptide
arn es
Ġrapid ly
ĠSa ussurea
ĠGelsem ium
i opsis
m ium
Ġd ose
Ġpro f
Ġc ata
Ġt rop
as on
ran ce
ry so
Ġpyr roles
carb oxylate
ifer um
prop anoic
Ġoct asaccharide
ĠMar s
riz ation
t or
u ronic
in h
Ġp ort
Ġf ive
Ġd a
Ġd r
Ġo pt
ol ina
ol ytic
Ġg reat
el le
st ro
ĠC ed
Ġre active
Ġl ater
ĠE unic
ĠH epat
ĠB ea
Ġla ck
lan e
Ġhetero arene
Ġsulfon ic
Ġinf lu
icul atum
Ġthio ureas
Ġgris eus
Ġdiff icul
C h
Ġn od
Ġn aus
Ġh ipp
yr idine
Ġpar ts
Ġtrans m
cum ulation
ĠJ AK
ung ent
Ġthrough out
Ġext rem
Ġguan osine
Ġrevers e
Ġblu e
Ġpeptido glycan
p et
r ated
y x
Ġmo l
Ġf isch
Ġo re
Ġb al
ol ich
CN CCC
el f
ĠS pha
Ġres tri
ĠH ipp
yn a
io ch
Ġarom atica
und ec
yper us
Ġmut ations
Ġchain s
Ġdibenz o
ĠPter is
ĠAdmin istration
Ġg em
ch ea
ĠC yperus
ul atus
ĠT rib
ag ent
ind oles
Ġvir ens
Ġur ea
Ġmut a
ĠRub us
ĠSw ertia
Ġcarot enoid
Ġviv o
B Bs
i ef
Ġ lysine
Ġc y
ar s
am ensis
iv en
Ġal um
Ġv omit
Ġst ech
Ġus es
anth um
az oles
Ġtri cuspidata
ĠThe onella
hydro peroxy
Ġdep end
Ġmic rotub
Ġpres erv
ĠAplys ia
Ġmonom ethoxybenzene
Ġdiagn ostic
Ġbla ck
Ġcyclod epsipeptide
Ġhypoglyc emic
Ġpapy rifera
Ġstech ei
N P
Ġ "
ur ia
Ġn itrate
ata mans
ic ans
it ab
am ia
ĠP rim
op i
ĠL esp
Ġch ild
ĠT am
ry za
ptom eria
lan atum
ĠO ryza
Ġj atamans
ren ia
dim ethoxy
Ġir revers
ĠAm b
Ġchar antia
II I
Ġsin ce
Ġaust ralis
ĠSym p
ĠCrypt oc
izoph renia
Ġperuv iana
ede za
ĠLesp edeza
Ġjatamans i
P CBs
i el
m e
n ith
al ler
it ary
Ġac cumulation
ĠC rot
Ġr am
ĠM an
ell atus
ist amine
ry i
ĠPh yll
Ġpy re
Ġcarbon s
Ġdia betes
OCCOCC OCCOCC
Ġpromot es
Ġtinctor ia
ĠLil ium
ĠCry ptomeria
l ife
Ġa x
CCC S
yc ol
ec ium
ĠM all
ĠT ar
io thal
Ġmic ro
ogen es
Ġpyraz ol
Ġcycl opent
Ġgalact osamine
Ġlat ifolia
ĠCast an
ĠTrib ulus
C P
d le
is cus
Ġp ungent
Ġf e
ila x
Ġc ad
re monium
Ġglyc erol
Ġad h
Ġdis pla
ĠZ iz
ov e
Ġstruct ures
Ġpyrrol idines
Ġfrag rans
Ġwe eds
hydrox yc
Ġoctadec anoic
ĠSm ilax
Ġcorymb osa
ĠMall otus
C D
n ica
ro gra
Ġd ark
Ġc ret
ol ob
op rotective
oc lin
Ġcarb aryl
ĠAr alia
ĠK h
ink s
ĠEu on
aryl piperazine
chloro phenyl
Ġdes ign
Ġhirs utum
ĠSolid ago
ĠHum ulus
ĠCist anche
ĠEurope an
Ġnemat ode
Ġacumin ata
Ġterrest ris
A TP
O OC
s c
at opsis
nd ra
va ri
it ch
ar icide
ul ations
ĠL as
ment ation
yn ia
tag on
eri oides
pyr idin
ĠAm ycol
naphth alene
cript ase
Ġbarb ata
ĠCrot alaria
ĠKh aya
ĠEuon ymus
ĠAmycol atopsis
C r
r ub
u a
cu te
Ġp alm
la g
Ġw ill
el ii
Ġre agent
ist roc
ole t
yr ate
ag ulant
ĠAr nica
opyran oside
Ġtrans port
Ġmed ica
Ġimp ur
Ġimp licated
Ġannu us
ĠPet rosia
Ġbarb it
Ġhypog la
Ġresorcin ols
- ),
ĠI V
ino len
ĠL itsea
ĠT er
Ġla ur
anth raquinone
Ġrec om
Ġtrans loc
Ġde la
ucle otide
Ġphenyl alanine
hept anoid
Ġgalact ose
Ġdiaryl heptanoid
Ġvi olent
ĠGon iothal
igu a
Ġtex ti
Ġimmunosuppress ive
ĠGoniothal amus
6 8
d on
Ġa lan
Ġp osit
Ġd il
um at
Ġh y
ul ina
un ica
im olar
ter i
ĠD ich
Ġ2 3
Ġ2 6
lan ica
Ġob l
deoxy ribonucleoside
adi enoic
arach id
Ġindividu al
Ġrelax ant
Ġbas ic
Ġarab ica
Ġnaus ea
ĠCryptoc arya
H g
T b
c rib
k es
s le
le um
id ens
Ġg erop
ĠP unica
Ġal p
ot ea
ut es
ap n
ad e
rot ector
Ġgen ot
Ġcap s
ilic on
Ġequ imolar
ĠNocar dia
Ġpa uc
Ġsus p
Ġgerop rotector
Ġ lys
ur ally
ic ope
Ġs ept
ar anga
ĠA cute
ĠP op
Ġch ryso
Ġ2 8
Ġrad iation
ĠMac aranga
Ġradio active
olf ia
Ġlup ulus
t il
Ġac aricide
qu e
Ġst or
Ġva rying
Ġy et
Ġsh ould
Ġ199 8
Ġcap it
Ġver ticill
acea e
Ġext ract
Ġhirs ut
Ġmodul ator
rogra phis
C A
R P
i atum
p l
t ra
z e
at is
Ġd ip
ar i
Ġh yb
ĠM it
ĠH etero
Ġla b
ab dus
oss yp
Ġregul ation
Ġbreak s
Ġske let
ocosahexa enoic
ĠAnd rographis
Ġhypogla ucum
ĠPop ulus
H P
R I
f uro
h ol
s et
th ma
Ġp ig
Ġp all
Ġs uc
ar icus
Ġb ark
ph yllus
ĠS pi
ĠP BPs
Ġe ff
etabol ite
Ġv is
ĠT reat
ĠG ram
Ġtri g
Ġcor rosive
tig m
Ġfu j
emon ocarboxylic
olog y
Ġsalic ifolia
Ġdiv ers
Ġgerm ac
ĠPlat yc
opi oid
o kin
s phing
Ġn il
CO CCC
or pha
ĠA es
ra e
oc a
eth ylene
ept idase
CCN S
ĠT rans
icu la
Ġcan ariensis
ian ensis
our s
Ġofficin arum
Gal NAc
Ġcharacter istic
Ġsurf ace
Ġpyrrolo quinoline
Ġmitochond rial
Ġsubun it
Ġglycosyloxy flavone
ĠEur yc
E PA
h as
y ed
} -
Ġ CO
Ġd yes
Ġc il
Ġb a
Ġe asily
ot ica
ero b
Ġch lo
Ġph il
gen um
Ġanti emetic
Ġant ich
ind a
oth rix
Ġco valent
emb rane
idin one
uro i
ik uroi
Ġhem at
Ġdel ic
Ġphosphor ylation
ĠJas min
Ġorigin ally
Ġrestri ct
Ġfuj ikuroi
3 3
Ġis otope
Ġp u
Ġd icarb
Ġs ep
os in
Ġb or
Ġb ladder
Ġh en
Ġh isp
om es
Ġam ido
ter eum
ĠSt ev
Ġex act
Ġle pt
Ġapp lanatum
ĠAn c
Ġflav escens
Ġur alensis
ĠTrich ilia
Ġmeth ylene
Ġfung i
imidaz ol
Ġirrit ating
ĠOn ly
Ġerect a
isoflav one
curb it
ĠGyn ostemma
Ġvomit ing
ĠTam arix
] [
u veria
ro up
Ġs ug
os omal
il le
gan ese
im ino
Ġcarb ob
ĠE ut
ĠB ip
ant ed
por um
Ġtri ol
Ġtr icarboxylic
Ġcont raction
ĠAc remonium
uv ic
hexadec anoyl
Ġphen anthr
oxyc arbonyl
arrh yth
Ġful ly
ĠHym en
Ġmad e
ĠDys idea
Ġrose us
ĠAx inella
ĠBea uveria
Ġobl iqu
) ;
c l
w a
Ġd ex
on icum
or ella
os iphon
Ġt olu
Ġre ason
oc ca
Ġ2 7
ĠE m
Ġst yr
oph yll
Ġgla ucum
iph us
Ġproper ty
Ġantic o
Ġtub ulin
Ġhep atic
Ġprostagland ins
Ġmax ima
Ġinn er
ĠZiz iphus
Ġchryso genum
cu n
et yl
Ġh ad
om y
ch icum
ox ane
Ġal though
ĠCh ond
fol ate
Ġcal yc
Ġuse ful
ĠMar vin
uv olfia
Ġplat ensis
ĠCol chicum
Ġprog ression
ĠRa uvolfia
Ġnicot inic
pos ure
Ġcarbob icyclic
K do
d inia
l ur
o e
Ġc roc
Ġs of
Ġb o
ĠAr ct
phor us
Ġcont rib
Ġacetyl cholinesterase
ĠCom b
adi enoyl
acc ording
Ġcit rifolia
ĠUn caria
fus ed
ometh ionine
Ġvisc osa
ĠPlan tago
Ġanthocyan idin
Ġadren al
Ġchild ren
8 7
s ynthetic
Ġm uch
Ġm ercury
Ġc ath
Ġc ylind
Ġs ar
ar f
ĠP en
Ġv eg
ĠR ad
ce ella
Ġse iz
opyran uron
galact osaminyl
Ġpr inc
Ġinj ection
ĠJun ceella
ĠMel icope
Ġhel i
ylen ic
Ġintrodu ced
ĠStev ia
ĠBip olaris
Y P
k ia
k hol
t o
in ed
Ġb if
ĠC all
ĠC lin
ĠH em
hydroxy methyl
ial is
CCCCCCCCCCCCCCCC CCCCCCCCC
ex ic
Ġad vanced
Ġen ough
Ġapp lications
Ġar m
oth eca
ust ion
Ġrad i
Ġcation ic
Ġsem i
Ġalkyl benzene
Ġtetrac os
aspar ag
Ġmann osyl
Ġlim ited
oplas ma
Ġpolyp renyl
Ġimprov e
Ġthough t
Ġhead ach
rode nd
9 8
d in
m enth
n ic
u ent
u ensis
le ri
er ing
on azole
Ġs olan
Ġg er
ĠS afety
ĠC ordyceps
Ġor yz
ĠP loc
ĠP rodu
Ġmetabol ites
ĠE PA
ĠT o
Ġamino quinoline
ip al
Ġbenz ox
benz oth
Ġdis co
se lective
Ġde f
Ġun w
Ġwas te
der ia
Ġcont rast
Ġinter med
Ġgu ianensis
Ġherb acea
Ġbrom o
ider mal
minal ia
Ġdecreas ing
Ġnic kel
ĠInc reased
Ġrock s
Ġergost anoid
Ġabund ant
istroc ladus
ĠTer minalia
ĠAnc istrocladus
Ġantico agulant
l ura
n ea
in u
th ro
Ġb ack
Ġt or
pt era
ox aline
ĠD er
Ġag lyc
hydroxy ethyl
Ġder mat
te x
ag as
ĠV eron
ethoxy flavone
erg y
ola ct
Ġtetra hydroxy
ĠPar kinson
methoxy phenyl
ych ium
Ġer in
form yl
ĠMac lura
glucuron ide
ĠClav ularia
Ġpentaph yllum
Ġtransdu ction
ĠEunic ea
ĠAmb rosia
Ġoryz ae
g on
y pt
Ġ et
in ine
Ġs pha
re atic
Ġe chin
Ġmetabol ized
ĠL u
ĠD e
ĠD ue
Ġcarb ot
Ġanti mony
ff ea
Ġpol yst
ĠIn f
Ġinter action
ĠSe dum
Ġpest icides
Ġiod ine
rang ea
ĠXanth ium
Ġanx iol
Ġtuber cul
Ġimpur ities
crib ed
khol deria
S P
i ost
l oss
z he
le v
Ġc ep
es ii
Ġth yroid
Ġs ites
Ġb iloba
ox obut
ĠT umor
ica ulis
Ġsubst ances
Ġtri anion
amin ergic
ĠSacch a
pyr role
ĠRh eum
ret ed
Ġfum es
ĠCom mi
Ġstri cta
Ġdom ain
Ġov ata
Ġexplos ive
Ġcris p
Ġsubsequ ently
Ġlitt oralis
ĠHepat itis
Ġunw anted
zhe imer
ĠCommi phora
f ruct
Ġ /
le ep
Ġd em
Ġc e
st ruct
ĠS yn
ĠD or
ĠT etra
ect in
Ġactiv ator
ach loro
Ġ5 0
ast rella
carb amoyl
Ġmed iated
Ġindu cing
Ġep idermal
mann ii
Ġses ter
Ġexc els
Ġmy ocard
ĠOc otea
Ġsag itt
Ġseric ea
Ġsomn ifera
Ġcren ata
ĠTin ospora
Ġsynthes ized
Ġhen ryi
Ġa bi
in erv
Ġp ure
Ġn idu
va statin
om yc
og n
Ġtr iazol
ĠAl zheimer
ath us
Ġacet ylenic
mann opyranose
Ġgen eral
glucos iduronic
erm is
anol ide
ĠDal dinia
Ġhea v
Ġcomb ines
osphing osine
g ol
Ġ =
Ġn as
Ġan hydr
Ġt re
ol itsea
op ogon
Ġr upt
ot is
oc alyx
ino ic
ĠF um
Ġtet ral
ang es
iss imus
Ġadd itive
Ġgla uc
ĠNe olitsea
Ġstruct urally
Ġexc retion
Ġpolymer ization
Ġaller gic
ĠMy x
Ġbacc ata
ham ii
Ġnip pon
c yclohex
Ġ eri
Ġ emb
Ġd ies
Ġo ily
id em
Ġth iazoles
Ġs umat
eta ble
Ġe urop
ot r
ec arb
ero us
ĠH eric
Ġphosph orus
Ġser ratus
ĠAg eratina
Ġper mea
icos atrienoic
Ġhist one
Ġmil ti
fuc ose
Ġglycero phosphocholine
ioph leb
Ġcomb ustion
ĠGon iophleb
ĠNocar di
Ġvel ut
ĠHeric ium
ĠGoniophleb ium
P I
S A
d em
m od
r enol
v ol
Ġ ri
om en
ac iens
Ġas i
ĠP ong
ug a
ĠM ach
Ġch olan
Ġch ama
Ġtr ia
ign a
Ġco el
Ġret rof
yan um
octadec anoic
eroc arpus
Ġmedic ations
-]# [
ĠHym eno
Ġmig ration
Ġmagn esium
Ġwithdra wn
Ġextrem ely
ĠEuryc oma
Ġcil iata
Ġanxiol ytic
ĠPong amia
6 0
g ib
i ence
m et
p roduct
x anth
Ġs angu
am s
oc k
eth ane
ept ic
Ġch am
Ġder mal
Ġform ulation
ip oria
Ġbenz ophen
Ġta ble
phen yleth
Ġhydrox yl
onas cus
Ġcu curbit
py rim
ĠMyc oplasma
Ġenh ances
Ġflam mable
Ġfru it
neuramin yl
Ġdifficul t
Ġviolent ly
9 52
d enia
k i
m ur
at if
Ġd uration
er us
Ġan tagon
Ġb ound
Ġb ec
Ġt um
et er
ph yt
el um
ĠC ell
ĠM onascus
ĠD ry
ĠE ri
ĠE rem
ĠSt y
Ġst ress
ill ium
Ġar thritis
Ġstim ulation
Ġdel iber
Ġcord ata
erber a
glucu ronic
ylen ed
Ġtrihydroxy flavone
Ġutil izing
Ġprof ile
Ġveg etable
Ġ Î
th ecium
ila n
yl odes
Ġro c
Ġro bus
ib a
act s
ip ed
Ġsulf oxide
ost erol
ink go
Ġinf lata
Ġpent a
ria conta
ish ed
uv ate
activ ation
Ġfrag ment
otin amide
Ġphenoth iazines
ĠPers icaria
Ġnidu lans
Ġrobus ta
M et
z ianum
er ella
Ġc ysteine
il ing
ĠG inkgo
oh ept
Ġglyc yl
Ġen ergy
of orm
Ġcar cin
Ġpotent ially
Ġindu ced
ĠMon t
pyran ones
omit opsis
ĠAt ract
Ġcyan ide
Ġflu id
Ġdiet ary
Ġsul ph
Ġsug gest
opyranuron osyl
Ġmilti orrhiza
ĠNocardi opsis
c ou
l om
s uccin
y ana
is oquinoline
Ġd ic
Ġs tip
os ensit
Ġb er
Ġh er
ac is
ti ana
arb amate
ĠL onch
ĠSt yl
ĠB er
ĠB idens
icu laris
ĠStre pt
ĠR es
ce ler
Ġaur antia
Ġoil s
Ġsimp lic
Ġhydroxyc oumarin
Ġsour ce
Ġvarieg ata
agas car
Ġroc ket
ĠLonch ocarpus
c oun
y gium
Ġm i
th iazol
Ġp ositive
Ġw ax
Ġth yrs
Ġg m
el os
Ġl in
Ġmon gol
ĠR uta
yt idine
Ġne ph
Ġalk ane
Ġket o
Ġhex acos
ĠAct ino
Ġhydrox ylation
Ġest radiol
Ġisoquin oline
ĠMe lamp
Ġasper a
Ġasi atica
Ġdeliber ately
ĠMelamp odium
m us
th y
ĠS tereum
oc ladium
ran thus
ĠT et
Ġma h
amino butyric
ast ane
adec anoic
ric k
cur r
Ġflav one
Ġgla b
Ġpres cription
octadec enoyl
Ġmix ed
ĠEx posure
Ġorganosulf onate
Ġhept asaccharide
Ġinte ger
elin ii
Ġfus ed
Ġopt ically
Ġphil ipp
Ġamido benzoic
Ġsar ment
Ġgm elinii
D L
n or
Ġa ver
is oleucine
al ic
Ġin vas
Ġd on
ata n
us cular
Ġg iven
ide c
ĠS ap
gan um
ĠE R
Ġv ess
Ġsp iro
ĠR uss
anth e
Ġtri f
Ġar ist
ĠIn hibition
ang io
ospor um
Ġole an
Ġret inoid
00 0
Ġcou pled
ĠMor inda
Ġfo et
Ġscab ra
Ġargent ea
Ġbar rier
ject s
Ġev idence
Ġtrifol iata
ĠRhapon ticum
Ġbarbit ur
ĠAtract ylodes
b est
e ia
t un
w ard
Ġis op
Ġp lic
Ġf ish
Ġn am
am ium
ĠP itt
ib iscus
ap an
ĠH ibiscus
lo ats
di ketone
Ġon c
tri es
Ġper for
dim ethylamino
atin ib
py rimidine
tetrac os
Ġhexadec anoyl
Ġparti al
Ġmad agascar
Ġana esthetic
Ġdiss olv
Ġinactiv ates
ĠSyz ygium
Ġgreat er
Ġtexti les
ĠJasmin um
Ġcarbot ricyclic
d odec
z ed
Ġm imic
Ġin ermis
Ġd ry
Ġn M
as ia
ia ca
rom ycin
ot axus
Ġv itro
Ġma culata
Ġbenz enoid
Ġtreat ing
ĠV ir
Ġsc or
ome la
Ġcap ensis
ution s
rox im
Ġpyrim idone
Ġvasodil ation
Ġmaterial s
Ġvirg in
ĠCo ffea
ĠPt ero
Ġtra de
Ġnob ilis
ĠPhell odendron
Ġprogest erone
Ġsympath omimetic
Ġocc ident
h old
Ġm atrix
la uc
ar dia
Ġh ain
ent ion
od ys
gen cy
ĠF rax
ind le
Ġtrans criptase
Ġhetero phylla
Ġpyr idin
ren gth
oquin ones
Ġamin opyrimidine
Ġfood s
Ġglycero phosph
Ġorient ale
Ġcoun tries
Ġmig ra
berg ii
Ġscaveng er
Ġbrasil iensis
Ġcatalyz es
stro emia
ĠAes culus
ĠFum aria
ĠFrax inus
A S
b acterium
g ical
i ifolia
Ġc osm
os ta
yl idene
Ġg ang
Ġrole s
ĠL iss
ĠM enth
ĠH ar
+] =[
ĠSt achys
Ġst ellatus
ole pis
est re
Ġter m
orm ation
Ġring s
ract ory
fun ction
olog ic
ĠPseud oc
rost agland
Ġelev ated
Ġumb ellata
Ġmarit ima
asparag ine
ĠMenth a
A ID
E P
S SC
l ipid
t re
Ġm exic
en em
en one
Ġan hydrous
Ġs ensit
Ġh apt
ĠS im
il um
Ġfor tun
ĠL ant
Ġst rength
ĠG en
ines s
idu la
Ġtr ilob
Ġne g
ĠK inase
Ġbut enolide
ĠJ ac
Ġinf ormation
Ġses sil
sulf ate
Ġcyt ochrome
ĠCom par
Ġsch izophrenia
sulfo amino
Ġrespons es
Ġadul t
Ġdisru ption
ĠPul icaria
ĠVeron ica
ĠMach ilus
ĠLant ana
h a
r ates
Ġd ra
es al
Ġan other
Ġb ulb
om as
ĠA DP
ĠC DP
ug lans
Ġam yg
ĠT ype
lar dia
az in
ĠIn s
galact oside
ĠJ uglans
oin ositol
ĠRh abd
ĠCor rosive
ĠLig ust
Ġfrag ilis
Ġthi en
ĠPer ip
Ġkidne ys
Ġgib b
Ġald osterone
Ġicos anoid
ĠBotry tis
ĠMyx ococcus
Ġamyg d
b etic
Ġa ble
Ġd as
va ge
id ino
Ġt rem
re x
ĠS er
ĠP ro
Ġr uber
Ġcomp le
ĠD ep
ron ate
Ġcar d
Ġca ud
ath y
ke i
Ġlong a
Ġpy rans
par t
ile ne
Ġnucle us
Ġglut amate
Ġmut ant
Ġmy o
Ġrevers ible
ĠHal icl
Ġpinn atif
Ġsu ff
Ġpal ust
Ġanthrac ycline
Ġthym idine
Ġdocos anoid
ĠDens ity
Ġisoflav onoid
Ġpersist ent
Ġquass ioides
Ġpunct ata
inh o
ĠPloc amium
ĠProdu ces
Ġhapt en
ĠLigust rum
ĠHalicl ona
n ormal
t olu
th i
Ġp endula
Ġs ex
Ġs ame
ph th
Ġg lomer
ĠA eg
ĠA MP
ox ime
ĠC ip
ul um
ĠP lu
Ġro om
Ġl um
Ġox anes
Ġob ov
Ġj asm
ĠAr g
Ġacet al
Ġthere fore
DA C
Ġprop ionic
yclo hexa
Ġdim ethyl
ode oxy
yro thecium
Ġcrass um
sh ort
Ġrelax ation
opol ysaccharide
ocaul on
F DA
G lu
N eu
P K
r ul
s a
at ropha
Ġd av
Ġn ud
ic illin
Ġt ime
ac ca
ĠL im
qu a
ĠF omitopsis
ure um
ucle oside
Ġquin oxaline
ĠJ apan
ĠJ atropha
raz ol
aur urus
Ġtetra peptide
ĠPol yp
usti cum
ĠGlyc ine
Ġsta nd
Ġmuc ron
Ġbronch odil
Ġhydroly sis
Ġfluores cent
roxyl um
Ġpen et
Ġexper im
Ġantis eptic
apn os
Ġantich olinergic
Ġerin aceus
Ġpermea bility
ĠMont anoa
rostagland in
ĠPlu chea
M S
o rot
v ularia
Ġ '
Ġ ub
Ġm ell
ro furan
Ġp or
Ġp almitoyl
la p
Ġf a
Ġo ld
ĠI x
em istry
ing ia
ĠA LK
el ina
ti os
od el
ĠN A
ĠH yr
Ġus tus
ip ated
ĠTh ev
Ġse en
Ġint estinal
arg ed
roph ylla
Ġhe ated
ess a
ret um
Ġcry ptom
ĠTrich oloma
Ġmeth anol
Ġel ong
ĠCur vularia
ĠLig usticum
Ġstimul ating
Ġtrich othec
Ġspic ata
Ġsw inho
ni eri
Ġrupt ure
rick ellia
Ġsarment osum
roxim ately
ĠHyr tios
' '-
d ition
d icarboxylic
n is
th rix
nd ula
Ġin ositol
Ġprodu ces
ion ate
Ġas best
ox opent
el ium
il s
Ġe b
ad essa
Ġst erol
Ġanti pyr
Ġinc arn
ass iflora
Ġ19 8
Ġme g
Ġur acil
let otrichum
Ġtyp ically
ĠCa esal
aspar t
ĠCol letotrichum
iev e
ĠDens er
Ġmoll is
Ġheav y
Ġmadagascar iensis
ĠCip adessa
ĠThev etia
Ġswinho ei
ĠCaesal pinia
E K
c i
c ap
i ense
Ġ +
Ġ elliptica
Ġm ast
Ġmo ly
Ġp neum
ur acil
Ġs af
ĠS aururus
Ġr a
ti folium
Ġro st
yr is
als am
Ġco er
ola ena
Ġmono ester
ĠNe op
Ġpurp ureus
Ġantic ipated
ĠCD K
Ġmuc osa
Ġguan idines
ĠLe on
ĠHed ychium
Ġps ych
ĠTaiw ania
Ġantit umor
Ġoblong a
Ġrug osa
Ġset ting
ocer amide
Ġdies ter
Ġjasm inoides
Ġcryptom erioides
M DA
h ap
l it
is oflavan
at issimum
ct um
Ġo li
en ii
Ġth en
Ġs leep
ch al
Ġas thma
ĠP assiflora
Ġal dehyd
oc ephal
ept ive
Ġres in
ĠB e
Ġmon it
Ġaz o
ĠO ne
Ġox opurine
ros permum
len s
ĠAr m
Ġcyc lase
Ġbr ass
olog ically
ĠSch iz
Ġexc av
Ġhep arin
Ġbacter icidal
ken ing
py razole
Ġbelong ing
Ġlung s
Ġfru its
Ġlaev ig
Ġunderg o
Ġident ified
Ġabsorb ed
Ġzey lanica
Ġverticill ata
Ġreason ably
Ġcoel icolor
i asis
l ox
Ġf arnes
Ġw ood
Ġn ow
id ity
Ġc ost
Ġs ensitive
Ġb ene
Ġh a
Ġg on
Ġr uf
ĠL a
ĠN a
ys pora
Ġcons um
ĠCh en
Ġquin olone
Ġcolor ed
ĠAg ent
Ġgen er
eroc arp
ern and
Ġwor ks
Ġcir rh
Ġrat io
ĠBre ast
ahydro naphth
Ġadj unct
ĠSant olina
Ġspong e
ĠComb retum
menth ane
Ġmoly b
Ġexcav ata
f ur
o lam
al ina
Ġp ed
Ġd iaz
an al
oc cum
ig eria
ap eptide
Ġma ys
Ġsub tilis
ĠV ery
and ens
Ġgen ital
Ġstim ulant
ĠMyc ale
oplas mic
oxaz ol
Ġposs ess
Ġfla b
Ġcav ern
ĠGe igeria
Ġmont anum
Ġfortun ei
O CCCN
T A
at oid
Ġd en
Ġd ith
Ġpro cumbens
Ġth iazol
Ġs iam
Ġs ilicon
Ġg re
iv ia
ĠA phan
Ġor ange
il one
op er
Ġch anges
ran t
ĠT ol
Ġrel ief
yn um
ĠTh erm
ros e
Ġphosph onic
ĠAs pid
Ġne ar
acyl piperidine
rot ic
Ġta x
ĠZ ea
tri phosphate
ĠX enorh
Ġgu anine
Ġdens ity
Ġble ach
ĠPt erocarpus
Ġfrequ ently
Ġpu lex
Ġmyocard ial
gib berellin
Ġsimplic issimum
ĠPseudoc eratina
Ġoli va
ĠXenorh abdus
F rom
b ound
d if
d ea
f erol
n otic
u ct
in amide
Ġm ur
al icum
Ġs arc
Ġt ryptophan
om in
om position
Ġac h
ate chin
Ġas c
ox ohex
el min
Ġus ing
ĠG ly
ĠO ch
Ġant id
acet ate
Ġse lenium
Ġrep e
acetyl cholinesterase
ort in
Ġcompon ents
ĠMar rub
ode ficiency
Ġrare ly
ĠOr nith
Ġpap er
au cus
Ġprot ect
Ġcompet itive
Ġgua ia
Ġposs ible
ĠEryth roxylum
Ġinit ially
Ġoch rac
arachid onoyl
ĠPerip loca
ĠMarrub ium
D NA
N F
N i
m orph
u h
Ġ ill
Ġc lea
os ome
Ġt am
ph ilus
ate lla
st earoyl
ĠP lect
op etal
od ic
ad ium
ĠT urra
ĠB ud
di phosphate
Ġsulf one
of luoro
Ġdis odium
ola rization
Ġab normal
ĠSal inis
Ġimidaz ole
adi ene
Ġnic otinamide
Ġdens er
Ġav oid
ĠPlag ioch
Ġhar zianum
Ġmedi ators
Ġamph et
Ġmicrotub ule
dle ja
oclin um
angio genic
ĠLiss oclinum
ĠBud dleja
ĠSalinis pora
E C
d ouble
u cus
th amus
on ol
Ġb ur
et on
as cum
ph us
st ream
ĠS ene
ĠE ch
phosph onate
CCCCCCCCCCCCCCCC OCC
gal ia
ost atin
Ġar ti
hex acos
and rost
Ġdec omposition
kin in
Ġur idine
ĠPar thenium
hexa enoic
Ġphen ylac
Ġdop aminergic
ring tonia
Ġpers ica
esth esia
Ġlymph oma
Ġdom est
Ġdirect ly
Ġisomer s
dichloro phenyl
ĠAplys ina
Ġpo or
phosphon o
Ġshow s
ĠVerb ascum
itu itary
Ġtetral ins
ĠCompar ed
Ġobov ata
ĠSene galia
C er
r ina
in ane
CCCC CN
en oc
Ġt on
ĠA cer
ox anth
oc oumarin
Ġl ob
ig ena
uc ca
lo bin
lar g
Ġmon ofluoro
ym ph
ach ia
Ġdis color
Ġtox ins
ĠCar thamus
mat is
Ġte chn
ĠY ucca
Ġpil osa
Ġdemonst rated
Ġcytok ines
ĠHyd rangea
Ġallow s
Ġfisch eri
Ġcarcin oma
ĠRuss ula
Ġ enoate
Ġm en
or rh
ĠS ilene
ul ated
ul atum
ĠD actyl
ran ilic
ĠB rom
ĠB ufo
hydroxy acyl
Ġmon nieri
ĠTh ere
Ġphosph olipid
ĠV er
ĠPh ae
dia min
Ġalcohol ic
Ġang ust
li pt
Ġglycosyl ated
Ġwor k
Ġmyc otoxin
Ġcir cul
Ġnob ile
pyrrol idine
aden osine
Ġbracte ata
Ġpanc reatic
Ġrestrict ed
Ġseiz ures
Ġcep a
pyrim idin
Ġgenital ium
7 1
i valent
k appa
s er
y ing
OC OC
Ġf al
Ġf ra
on iana
en b
Ġth un
ox if
rom a
ti cus
oc iation
Ġl ines
ĠL ike
Ġla cin
Ġact in
Ġk ar
di ana
di oxo
ag u
ach al
og lobin
ĠV ern
ĠU r
Ġon ce
dia e
Ġglut amine
tr iazol
hydr ate
Ġmam m
utum n
ll um
ĠHed era
ĠSta phyl
cycl opent
Ġmetall oid
Ġagri culture
Ġax illaris
ĠAspid osperma
S b
S n
c ies
p osit
Ġa ureus
Ġa utumn
in one
Ġpro b
Ġc yst
Ġs achal
Ġg e
ox ia
ĠC yc
ĠC erbera
ĠT acca
ip orus
ow ii
och emistry
and rum
Ġdif fus
ĠMar ch
Ġgrand iflorum
osc y
Ġlim it
Ġlim onoid
Ġsu ave
rhamn osyl
ĠDys oxylum
Ġinteg r
Ġmetast atic
orphyr in
Ġconstit uent
agon i
ĠLam ell
Ġposit ron
Ġmah agoni
odeoxy ch
Ġantipyr etic
P BPs
R H
i ous
t ea
Ġc ocos
an cer
Ġs afety
om ach
ing ii
pt erin
el ic
ĠC YP
ĠD ic
Ġph armaceuticals
ĠB rickellia
og alum
all is
ob aea
Ġar alk
Ġmar k
Ġrad iata
Ġline aris
Ġem ission
Ġaden ine
Ġtom ography
Ġstra nd
Ġaur anti
Ġaer ial
Ġhirs uta
Ġmacroc yclic
ĠPlan kt
roduct ive
Ġmetast asis
diam ine
Ġlinole ic
Ġmuta gen
aller gic
Ġsolan i
ĠTo ona
Ġnippon ica
ĠJac obaea
Ġdra cun
ĠOrnith ogalum
ĠPlankt othrix
N K
l inolen
z ania
Ġf ist
Ġd ual
Ġw omen
Ġs un
ed rus
Ġg ar
Ġac celer
ĠS tere
ĠP ed
Ġal gal
bol ic
ĠM es
Ġch olinergic
ad ren
Ġv es
Ġv ene
ĠG ail
Ġsubst rate
te ver
Ġ4 0
Ġpol ium
Ġapp roximately
Ġcol on
oth amnus
Ġon set
ver ting
rov ed
rib osyl
Ġman ganese
vi ous
ĠAg ave
inf ect
flavan ones
Ġsalic ylic
ĠMon tever
Ġequ ivalent
Ġcommun e
Ġear ly
Ġkaemp ferol
pol y
Ġlut ea
Ġjun cea
Ġadh es
Ġsuave olens
ĠGail lardia
ĠMontever dia
P D
c c
w ays
Ġ CNS
Ġd ou
er ium
ic occum
vaila bility
ol t
ph ium
ine um
Ġas p
ĠA qu
ĠS inks
Ġal tilis
ĠD aucus
Ġch er
Ġcarb amic
Ġcarb azoles
yr idines
Ġform ulations
di astere
oph ilic
ab icyclo
yt enus
ann in
Ġar en
ĠPh armaceuticals
ĠJ ust
Ġsc al
Ġacu t
Ġmechan isms
Ġlan cea
Ġgrand iflorus
ĠMa ytenus
Ġstra ins
ĠDia betes
Ġdet er
Ġburn ing
Ġparas itic
Ġwea kening
Ġsubsequ ent
Ġaltern ata
ĠSarcoc occa
ĠNig rospora
Ġpreserv ative
ĠSymp loc
Ġstyr enes
Ġmonofluoro benzenes
Ġthun bergii
ĠJust icia
d ose
l ica
m etal
u i
w ay
y lan
Ġd actyl
Ġs phingosine
et ate
st im
Ġe uchres
Ġal lo
ec aria
ich us
ĠL ymph
ad ip
Ġph armaceutical
Ġsp read
rop ium
Ġox ime
Ġdis cont
ink ing
ĠPh lom
NN N
Ġcont rac
Ġglut amic
rab ility
erm es
Ġhyper p
Ġregul ator
ĠEx co
ĠHe lenium
Ġsolution s
Ġcarcinogenic ity
Ġrequ ire
ĠCle matis
Ġrig ida
Ġsurf act
ĠCist us
Ġflex ib
Ġamur ensis
ĠCarp esium
inu ed
Ġtrichothec ene
ĠSymploc os
Ġeuchres tifolia
ĠExco ecaria
S O
g ether
l ip
m end
le u
th iazoles
la ea
Ġc ough
Ġto gether
op le
ich ond
ĠB eta
Ġst ep
Ġsp le
Ġform yl
ow el
ĠAs p
Ġrep roductive
Ġtrans porter
Ġvir id
ract um
rob last
Ġper fol
Ġzwitterion ic
hal ose
Ġhydrochlor ic
ĠPar am
Ġlan c
ĠCon sol
Ġchrom ones
link ages
Ġfer rug
Ġmann ose
Ġimprov ed
lactam ase
Ġinterfer ing
Ġsour ces
Ġmust ard
Ġscle ro
ĠBur kholderia
Ġtrun c
Ġnas al
Ġsumat ran
ĠConsol ida
M o
h mannia
ata s
id ed
id ated
an oides
Ġs ac
Ġs yn
os anthes
Ġh o
Ġh omo
re pt
Ġg lucu
ĠA v
Ġe ven
Ġch iral
Ġag al
ĠN ot
ĠSt ellaria
Ġ3 5
CCCCCC OC
ĠB ar
di phospho
ag a
az ol
Ġpol lut
ĠV an
Ġva g
ĠU nd
ĠAn g
adec anoyl
Ġbut yric
ru pt
Ġmed ical
ĠW olf
cyl glycerol
Ġmac ros
Ġimp air
Ġthio phosphate
Ġcam p
Ġrele ased
Ġfol low
ĠRe hmannia
ili ense
inch ona
ĠLept osphaeria
Ġantim etabolite
Ġcatal yst
Ġimmunomodul ating
anthine llum
Ġolean ane
ĠTol yp
ĠWolf iporia
7 7
9 1
b o
d own
e qu
m TOR
v um
Ġd ah
en um
Ġpro c
ila ria
ic er
os ter
ol ol
yl methyl
Ġg ive
pt ic
oc ysteine
ub a
ĠE valu
ĠH ernand
ĠB al
ity s
Ġdi oxide
Ġcar e
Ġflav ipes
ix is
Ġext racellular
otrop in
Ġble pha
Fuc p
ĠPis um
Ġarv ensis
Ġcy anine
Ġgenot ype
Ġhyb r
Ġskelet al
ĠLeon urus
Ġsachal inensis
ĠHernand ia
S V
g era
s onii
u lea
Ġ cul
is opropyl
in ct
Ġf ast
ar ea
ia nd
us al
ĠC at
Ġcon j
if orn
ter ia
ad enia
ĠN ep
Ġv e
di ant
benz o
ress ive
Ġtrans ition
aur ane
Ġinter cal
Ġantic ancer
ĠMyc obacterium
otri ose
Ġsom at
AR S
ochrom ogenes
Ġbip yridines
ĠSub jects
Ġgigan tea
molecu le
ĠLag gera
ĠCy athus
ĠTrig on
Ġhor mon
Ġhirsut ula
Ġvess els
Ġmigra ine
Ġlaevig ata
ĠChen opodium
Ġfra diae
Ġflexib ilis
H ETE
z ue
Ġp ep
ou se
ith onia
ila nd
Ġs ant
Ġh yst
ĠC yano
rom onas
Ġro x
ig enin
Ġam yl
act um
Ġv ent
Ġfunction al
ĠT ithonia
ĠG le
yr t
yp ical
Ġpre m
hex osamine
ign ant
Ġinter f
Ġep ith
Ġcal iforn
Ġacu tifolium
ram eria
glucos in
Ġpyrrol iz
ĠOr gan
Ġcomb ustible
Ġfo ams
igu iera
Ġcannab inum
ĠCale a
Ġsiebol dii
Ġport ion
Ġdesign ed
Ġrecom mend
thro id
Ġsester terpenoid
Ġtrilob ata
ĠPlagioch ila
4 9
H ep
b lock
l odia
p re
r ite
at ensis
at ula
Ġp ituitary
CCCC COC
ila go
it rans
Ġb en
et ta
ch olan
ĠA R
ĠA ra
ĠA diant
ĠS lightly
ti orum
oc rine
ĠL aet
ĠM am
ĠB az
te romonas
az one
Ġdi z
est radiol
ost at
oth io
Ġcan escens
Ġpar tic
Ġde uter
Ġalkal ine
Ġflav ones
kin ase
Ġur emic
Ġsc andens
Ġole and
Ġtetra anion
Ġsim ple
dehyd es
Ġnaphth alene
Ġhydrox amic
ĠPar as
rata eg
PA R
Ġfer ro
ignan cies
Ġrevers ibly
ĠPer illa
Ġrig idity
pol yc
Ġpum ila
bur gh
Ġdin ucleotide
ĠCephal otaxus
Ġdr inking
Ġemb lica
odys idea
ĠLamell odysidea
ĠBaz zania
' ->
p rol
Ġm eta
Ġp ra
er ti
am ixis
st enia
ri i
-] )([
Ġal ope
ĠL oph
ĠR aph
eno lamp
Ġle ast
iaz ide
Ġper enn
Ġproton ated
Ġherb a
dihydroxy phenyl
rypt amine
eroton in
osc opia
opy rim
Ġglob ost
Ġsulfur ic
ocyan ate
Ġsuppress ion
Ġpromot e
oxyc ytidine
Ġaffect s
Ġneuron s
Ġpharmac ological
Ġsyr ing
Ġacule atus
ĠTreat ment
Ġheli oscopia
ĠDor stenia
Ġcavern osa
ĠAphan amixis
Ġagal loch
Ġrox burgh
enolamp rite
O CCCCCCCCC
P P
Ġa est
Ġa eg
Ġa urea
ro und
Ġp enn
Ġc ream
Ġb last
Ġt ar
ĠC oc
ti f
ĠD esm
hydroxy but
ĠG DP
osyl ceramide
ĠF GFR
az o
benz ofuran
eroid es
Ġde acet
van t
ocarp um
chlor ide
ĠAc orus
Ġeth ylene
Ġoxid ized
Ġrub ber
yg on
Ġly so
Ġcomplex es
Ġplat y
Ġdihydroxy flavone
ĠSp ongia
be led
Ġgerm anica
curb ita
Ġneed les
orub icin
ĠCu curbita
Ġcalyc inum
Ġsof t
struct ive
Ġabi et
Ġoccident alis
Ġsetting s
Ġvene zue
ĠLaet iporus
( \
P h
P ro
c oumar
i astrum
l ita
at icum
ro d
al ap
Ġp in
Ġf ash
ur it
Ġs tigm
om nia
ac anthus
ul ig
ĠP y
od g
ter minal
jug ate
ĠH ence
CCCCC NC
ĠV icia
Ġhum ilis
ath ic
ass av
Ġint est
ĠAg aricus
Ġgra y
ĠPol ygon
Ġlip opolysaccharide
Ġanth elmin
octadec anoyl
Ġel uc
Ġcur assav
Ġcate chin
ĠOph iop
Ġtinctor ius
Ġoblong ifolia
Ġfuran ocoumarin
Ġtransloc ated
Ġcovalent ly
Ġdisco ver
idem num
Ġretrof ractum
eter inary
Ġbarbitur ates
ĠRhabd astrella
ĠArm illaria
omin ant
ĠCyano bacterium
Ġfash ion
L ys
d ocosa
m yc
n arcotic
u z
le ria
en ig
atur es
ic ol
Ġg rass
ing a
ox oc
el oma
Ġor n
ĠP D
Ġr ats
Ġal m
Ġal t
ec il
ib acillus
ĠE lae
Ġv eterinary
Ġma urit
lo rop
Ġk e
te us
erp es
ob otry
und o
arp um
Ġits elf
Ġquin ol
Ġx ero
stra nded
Ġhe yne
Ġantibiotic s
Ġheteroc lita
piper azin
Ġver um
Ġhem sle
Ġrh eum
Ġburn s
Ġcit re
Ġcoron ary
Ġsylv estre
Ġpe dun
cycl opropyl
Ġbacc ifera
Ġprepar ed
guan osine
Ġandrost anoid
Ġpyrrolidine carboxamide
itab ine
Ġexcels a
Ġmongol ica
ĠTurra ea
ĠTrigon ostemon
6 2
Ġm arm
ro wn
Ġis oc
th am
al ba
Ġf ic
ĠI f
ion yl
ĠA ss
ĠA ust
Ġto b
ĠC ap
il in
Ġre ma
rom bin
oc ystis
ĠN erv
Ġst omach
all ia
all ote
Ġdep endent
ĠK al
Ġrepla cement
ĠDi anthus
ĠTrich osanthes
icos us
Ġtetrac ycline
Ġracem ate
fluoro phenyl
Ġop posit
Ġpulch er
Ġpulch ella
hom omethionine
RA F
Ġcounter ion
Ġphosphodies ter
Ġaglyc on
ĠLu ff
Ġvegetable s
Ġpneum onia
Ġalope cu
ĠRaph anus
allote ichus
7 5
C F
C L
G ly
in itis
Ġis obut
la b
ur idine
Ġc rit
Ġb at
um e
Ġac yclic
ĠS il
ĠP ot
gan a
oc al
Ġl un
ran olide
Ġsub erosa
glyc er
ĠTh er
ĠF rul
az ep
rop ol
yt ropis
ud a
Ġter t
ric ata
Ġde g
Ġpoly brom
inn ata
Ġstruct ural
piper idin
hexa hydro
Ġhal ogen
Ġcu b
Ġsymptom atic
ĠGu atter
sequ ently
Ġbronch ial
oz oal
vari an
Ġgermac ranolide
ĠDer ris
Ġpolyst achya
Ġaralk ylamine
Ġdeter min
Ġagalloch a
Ġvenezue lae
ĠFrul lan
ĠGuatter ia
6 28
a cum
b one
i ates
t ric
le ric
is e
Ġth re
Ġth om
et ite
Ġg a
pt ans
Ġre ce
Ġcon f
ist oyl
ĠB ian
ĠG lob
Ġanti par
ma nd
Ġdi oxo
Ġapp lication
Ġinc idence
ĠK rameria
Ġoxo lanes
ca ea
tri enoic
Ġcyt idine
Ġtetra pyrrole
Ġprost rata
icos atri
Ġhyp notic
Ġel is
Ġfluor escens
Ġpain ts
asm odic
ĠMel od
oplas ms
Ġeryth roc
ĠGymn ema
Ġsphing oid
ĠChrys anthemum
-{[ (
Ġsupple ment
Ġmol le
Ġmucron ata
Ġincarn ata
Ġdomest ica
Ġeluc idated
Ġalopecu roides
ĠBian caea
G MP
t ility
is so
Ġd io
er ly
ila g
as cens
Ġh am
Ġh ost
ac a
Ġr ice
un a
un ction
ra y
oc edrus
eth ae
ad iazole
Ġv ill
ĠT or
Ġla p
ab ethae
enes s
Ġdis infect
ĠAn em
Ġchem ically
acetyl glucosamine
tag es
Ġun iqu
stra nd
Ġab ies
Ġneu ro
Ġimmun odeficiency
ĠCam p
ĠSe lag
thre o
com pet
Ġhom od
ĠOr th
Ġmod ified
Ġexpl ode
rhamn ose
brom o
Ġacule ata
ĠInd uc
Ġalan ine
osensit izing
Ġexperim ental
ahydronaphth alenes
Ġclea vage
Ġelis abethae
ĠSelag inella
5 1
M n
Ġc la
Ġb ux
ri ol
od a
ĠD ah
ell is
Ġconjug ated
Ġla wn
ĠG roup
ron ia
Ġaz aspiro
Ġactiv ating
ĠV iro
ĠIn activation
ath er
Ġsteroid al
Ġpot ency
Ġpre vious
Ġun known
Ġnon steroidal
Ġinter n
Ġmono atomic
Ġcycl itol
Ġmut ation
ĠAd en
Ġvol tage
ĠActin op
igin osus
ĠEryth roph
Ġamb igua
Ġstem s
Ġsusp ens
Ġcontrib ute
ĠInf ection
laea gn
ĠViro la
A DP
D O
l ina
p almit
t le
le g
ro dia
Ġprodu cing
an b
es a
Ġs ina
Ġb arium
Ġt end
et ine
Ġh ours
em ale
iv er
ĠC B
il ine
ra le
ut an
oc ybe
ther apy
im on
ĠD im
Ġ3 4
Ġbe fore
Ġes cu
ip in
ĠO t
len ta
con verting
Ġx yl
Ġsc ience
lact ic
arcin oma
Ġgrand is
Ġfol ate
Ġrac emic
Ġplat inum
Ġstimul ate
Ġbreak down
Ġnitro gens
Ġvirus es
Ġsuppress es
ĠSm all
Ġaust rale
iev ed
Ġaut o
Ġko enig
iel d
Ġhemat opo
Ġanhydr ide
ĠSty rax
ĠStyl issa
lox acin
leu kin
ĠAdiant um
Ġaeg ypt
Ġstigm astane
ĠErythroph leum
Ġkoenig ii
L i
] )
o rosa
Ġis oform
Ġo ption
on o
on in
on ica
on otus
CCCCCCCC OC
Ġg old
ĠS uber
ino a
lan a
Ġhydroxy flavan
Ġspec ial
Ġtri folia
Ġar t
Ġar enes
Ġcar tham
Ġprote as
Ġquin oline
Ġcyc lin
ax acum
phospho glycerol
ora utan
Ġmono amine
Ġbro th
ĠNe orautan
Ġfer mentation
ioph armaceutical
ĠUn like
Ġinteg rifolia
Ġcere b
Ġchel ator
chrom en
methylhexadecasphing anine
Ġfat al
over expressing
Ġarter ial
Ġamur ense
Ġpt erocarp
Ġcycloprop anes
leas ing
Ġretard ants
ĠTar axacum
Ġhain anensis
Ġgon ad
Ġbleach ing
Ġcher im
Ġdiscont inued
ĠNep eta
Ġaest iv
ĠNeorautan enia
7 4
A g
k inensis
o i
s ium
v inyl
at ospora
Ġm TOR
Ġis oflavan
ur is
Ġpro x
an one
it as
ol atum
yl us
Ġh op
ly x
ĠA T
ĠP eric
ri cum
Ġl o
ĠH un
ĠH eb
ĠG yp
yn ur
Ġlact iflora
ĠO pioid
og nit
Ġad enyl
gluc opyranoside
amino ethyl
Ġca er
acyl glycine
Ġhetero phyllus
Ġsol vents
Ġoxo acid
Ġab s
las ia
ket al
Ġfu el
rag yna
Ġmeth ionine
Ġirrit ant
ĠAd vanced
Ġbenzodiox ine
Ġerg ot
Ġsignificant ly
Ġexplos ion
eck ia
ĠMit ragyna
Ġdelic iosa
Ġsep ium
Ġtubercul osis
lev is
ĠTumor s
ĠMam mea
ĠOphiop ogon
Ġpulcher rima
Ġcherim ola
7 2
S T
b acterial
c id
w ellia
Ġm arginata
Ġp od
en ces
yl ine
ph ed
ac antha
ine us
iv eness
ĠC ary
ĠC erat
ĠC ymb
ĠP an
Ġe valu
Ġ1 00
enz a
ĠT e
ris onia
Ġapp etite
Ġsal vi
und ice
Ġsol itum
Ġpyr idaz
yll ium
carb olines
Ġang ulata
Ġinter rupt
Ġinter leukin
ogen esis
Ġphenol ate
tig ma
Ġrub rum
nitro phenyl
ĠJun cus
Ġgrand ifolia
Ġfrag rance
Ġars en
Ġvirg aurea
ĠEn t
ĠPle u
Ġmultif ida
ĠWh ile
Ġcellul ose
isoflav ones
Ġpoison ous
Ġviola ceum
Ġcad mium
Ġpig ment
ĠHar risonia
tre halose
Ġpalust ris
ĠPolyp odium
Ġdracun cul
ĠTolyp ocladium
Ġsomat ostatin
ĠFrullan ia
ĠActinop lanes
I C
L P
c yste
k am
o ense
s i
x is
Ġ u
Ġa ris
Ġp elt
Ġc ot
Ġs am
Ġs eri
ed ing
Ġt annin
et e
ĠA dul
el is
rom inated
Ġcon cer
ra d
im ides
ter t
ell atum
ĠE r
ĠN itr
ĠB ry
Ġma nd
ĠF isch
ach y
Ġrec ogn
orm ally
ula ca
cin n
ati ent
Ġins omnia
Ġend ivia
ĠPol yb
Ġoxid ised
Ġprop in
Ġhydrox ide
Ġbacter ium
Ġhem e
mph al
ĠEp icoccum
Ġstri ata
Ġglycero phosphoethanolamine
Ġja undice
Ġnec rosis
Ġcinn amic
ĠBos wellia
phosphon ato
ĠDec reased
Ġvasoconstri ctor
Ġanx iety
ĠPa ecil
Ġorb iculatus
ĠEchin acea
arrhyth mic
Ġsulph ureus
Ġsiam ensis
ortin arius
ĠPlect ranthus
Ġlacin iata
ĠCoc culus
Ġpolybrom inated
Ġuniqu e
Ġbux ifolia
ĠPolyb rominated
ĠPaecil omyces
6 29
g ery
n ium
p es
Ġd ub
Ġd rac
ar hiz
Ġh et
ly ing
ĠS o
ĠC ul
ĠC ortinarius
ĠP and
ĠP rem
ĠP aul
op itys
oc ent
Ġl ith
Ġ2 9
ap ies
ĠE c
hydroxy flavanones
ose ira
rop sis
reat h
ĠV is
Ġtet raz
Ġcor tex
ola b
Ġmar ina
Ġprol ine
Ġpiper azine
inic ola
Ġmil le
anes ulfonic
bra in
Ġsil iqu
Ġphys ical
alc one
orn ith
Galp NAc
Ġps ora
Ġpum p
Ġign ited
Ġflavan ones
ĠOx ytropis
ĠUl va
diaz enyl
ĠMars denia
Ġback bone
Ġeurop aea
phth alm
Ġasbest inum
larg onium
Ġsumatran a
Ġcartham oides
Ġpropin qua
v es
is porus
Ġp ac
Ġn uc
Ġwith anolide
Ġc ruc
an ones
Ġt imes
as one
re du
om ea
iv ir
ĠS angu
ri dum
Ġal one
ig inosa
Ġcomp uter
ap renol
ĠN MDA
ĠH ydro
Ġ3 6
ĠB let
Ġla g
ĠR ib
Ġdi phenyl
methyl phenyl
ĠIn onotus
ĠAl so
rot ropis
Ġdec omp
sulf on
Ġphenyl prop
Ġfir es
Ġcombin ing
ĠCal c
ps y
orh iza
Ġparv ifolia
ffic ient
Ġgas oline
Ġcand icans
Ġrotund a
arab ino
ĠCyst oseira
Ġtermin us
Ġflavan one
Ġvapor s
ĠPe largonium
Ġpall ida
Ġdivers ifolia
inerv is
Ġdav id
Ġbronchodil ator
Ġplaty phylla
Ġcrit ical
ognit ive
ĠBlet illa
5 8
< /
I n
m os
o zia
Ġ cum
in dus
Ġmo uth
Ġp isc
Ġf ila
Ġf ine
Ġd ig
Ġb on
ch us
ing s
ĠA ke
st emon
ĠC ad
Ġre fer
ri or
ĠE fficacy
ĠT ole
yr us
CCCCCCCCCCCCCCCC CCOCC
av ed
lu x
ĠF ib
ĠF LT
ne uraminic
por ium
oph enyl
all yl
ator ia
Ġde cumbens
Ġint ense
ca ffe
ĠIs atis
Ġneu rolo
li oside
Ġxanth ophyll
Ġdihydro pyridine
ĠCro cus
ger anyl
odiaz ep
Ġvisc ous
Ġfib roblast
ĠCo A
ril at
Ġref ractory
Ġperox ide
Ġul tim
Ġpentaph ylla
Ġpersist ence
Ġexist s
Ġmyel oid
Ġpt ero
Ġirrevers ible
Ġvis ual
ĠPen stemon
iost oma
ĠSap indus
diastere omer
opyrim idines
Ġdeacet ylase
Ġvill osum
Ġpterocarp ans
ĠFisch erella
ĠAke bia
' )-
I F
M G
a qu
f luor
l at
p oint
p rostaglandin
is ing
in chin
cu p
al in
Ġp ut
ct ive
Ġin active
ur in
Ġc ast
es ity
Ġb owel
Ġt s
Ġt erpenoid
Ġto ward
ox a
ĠC ucum
ĠP rote
ĠP rotein
ist ica
pha e
ĠN erium
Ġla m
Ġmon gh
anth ocyan
Ġox azol
methyl pent
amin opent
Ġim inium
ress in
Ġcer nu
ast atic
Ġbi om
Ġcontain ers
Ġund ulata
opt otic
Glc NS
Ġcent er
Ġlev el
ĠCor dia
ĠCor nus
link s
Ġperi od
Ġpap aya
Ġcrass oca
Ġmod els
Ġcitr ate
Ġcoch inchin
Ġol iv
Ġsuccin ic
Ġalum inum
Ġpyre throid
Ġnil otica
Ġdex t
Ġbenzophen ones
Ġnam es
Ġsuff r
Ġochrac eus
Ġsclero tiorum
Ġabiet ane
coumar ic
Ġcurassav ica
compet itive
Ġdrac o
Ġmongh ol
Ġcrassoca ule
Ġcochinchin ense
A CE
I T
b ilis
g ensis
i j
m yr
Ġp om
on al
on itrile
id ae
Ġc m
Ġs perm
os ing
om ala
Ġg ramine
Ġam abilis
ĠM o
Ġst eps
Ġsp ir
NCC OC
Ġaz aph
ĠO mphal
oth i
ĠAl k
Ġcor al
Ġalcohol s
Ġsol d
cul um
rich ia
Ġmac ropha
Ġanth raquinone
Ġtub ulosa
Ġexc it
ĠSc op
Ġem its
Ġpyrrol idin
iot ropium
Ġstere ocent
Ġneurot oxin
Ġhepat otoxic
Ġdown stream
Ġenh ance
Ġfus ion
ĠHyp oxylon
Ġiod ide
ĠBre ynia
Ġthromb oxane
âĢ Ļ
Ġgard en
Ġscop aria
Ġdent ata
Ġram os
Ġaurantia ca
Ġgibb erosa
Ġcard enolide
nis olone
aspart ate
ĠPolygon atum
Ġmonghol icus
ĠOmphal otus
6 1
H E
g y
h u
r ical
w ang
ur itic
ith ii
Ġs ial
Ġb alsam
ion al
re ma
ox imide
ĠP achys
ri ff
ot es
ot oxins
Ġro d
ĠD elta
ĠH am
ĠH ex
Ġbe es
ica e
Ġanti f
ty ros
di enoic
ano phora
yn amic
ĠTh ough
ne us
Ġle n
Ġolig onucleotide
ost ana
ĠAn iba
ohydr ate
hex anoic
hex acyclic
Ġhetero hexacyclic
lin us
rot ozoal
arg ar
Ġdec ip
Ġmic e
ifer ative
roph y
Ġole ifera
Ġsystem s
Ġdevelop ing
link ing
ten ance
Ġmacroph yllus
bis phosphate
ĠCyt ospora
ĠMyr istica
Ġop en
Ġchemother apeutic
Ġign ite
Ġviola ceus
Ġmang ostana
ĠSarcoc apnos
ĠSant alum
Ġdiam ino
ĠAf ter
icosatetra enoic
ĠEut yp
Ġtolu enes
coun ter
ĠStere ospermum
ĠPed icularis
ĠBal anophora
Ġheyne ana
Ġrheum atoid
Ġbat atas
Ġazaph ilone
ĠPachys andra
o ol
in ca
al dehydes
Ġf emale
Ġin ophyllum
er ca
CO CCNC
Ġs ig
Ġs ter
os ti
et icus
Ġh ol
Ġh erpes
ch ol
ĠP AR
Ġal ways
ept idyl
qu ired
ĠT ub
Ġmon ohydrate
Ġform osum
Ġdi astere
og ris
Ġspec i
Ġen amide
acyl sphingosine
Ġlong ipes
Ġtrans p
mann opyranosyl
meth ylene
Ġthro at
orph ine
Ġangusti folius
cut aneous
Ġfib rosis
inole oyl
diam ino
penta enoic
Ġneut ral
ĠCastan opsis
Ġdispla ys
okin etics
Ġstip it
Ġbene f
Ġlanc ifolia
Ġoleand er
Ġglobost ellata
Ġhomod etic
ĠInduc er
anthocyan idin
Ġdecip iens
. ,
0 9
H O
I L
M D
P ET
P BBs
Ġa id
is orb
th es
nd ens
cu laria
la ena
Ġf ed
Ġf acil
Ġd olich
on ig
an ii
Ġan omala
Ġs orb
ar ica
Ġb k
ĠA mar
Ġre ptans
ĠP rol
ĠP BBs
ĠP orella
Ġe vents
eth ylam
ĠM ercury
Ġwh ose
Ġfunction ing
CCCCCC O
Ġst earoyl
Ġform ing
Ġap o
ain t
Ġant isp
eno phora
oph oma
Ġva ria
Ġapp l
Ġca ff
ĠCh a
ca utions
ospor ioides
sulf onic
ĠPseud oal
tr ate
Ġpla ce
erox ide
Ġmix es
naphth yl
Ġfluor ide
Ġregul ated
ĠEx tra
ĠOn onis
Ġhom es
otrop is
Ġhel p
Ġlike ly
Ġte levis
ĠCyst ophora
ĠIm mediate
rof en
Ġtan arius
Ġenhan cing
Ġslow ly
Ch em
erob ic
Ġeri ocalyx
mur amoyl
Ġpinnatif ida
Ġmonit ors
Ġoliva ceus
Ġton kinensis
Ġlob ata
Ġdactyl omela
ĠPrem na
Ġsuffr uticosa
ĠPseudoal teromonas
Ġtelevis ions
( #
) \
c as
d elta
d ocosahexa
e lea
f t
f low
Ġ culture
Ġa dip
Ġf uc
ct amnus
an ema
an ecarboxylic
or ensis
or ii
or rin
ph ar
Ġh ed
am eth
ch alcone
Ġacid ic
ĠA gency
el i
ul os
ul osum
oc rella
uc yl
im ina
ap optotic
Ġv ig
ĠH olar
phosph oserine
ĠF ur
ros us
ĠAs imina
Ġester s
Ġj ul
ĠV ol
Ġtr ace
Ġpre cautions
Ġcontain er
Ġ19 56
Ġnon asaccharide
iqu it
Ġwas ps
Ġatt ack
rh ena
Ġdec arb
Ġent er
Ġper cent
arc issus
Ġexc reted
Ġmal ignant
Ġhealth y
ĠMyc ena
sm all
atetra enoic
Ġcommerc ially
ĠCle rodend
Ġparas it
den um
Ġerect us
ato es
Ġbras iliense
ĠDec ember
Ġvasoconstri ction
Ġphenoth iazine
Ġcatal ytic
Ġgard ens
ĠHealth y
ĠPent anema
Ġcharacteristic s
omy elin
Ġgang lioside
kappa B
ĠLymph oma
ĠUnd er
Ġdeuter ated
Ġseri ous
ĠHolar rhena
ĠClerodend rum
) ).
8 8
M L
c ol
c yano
o ber
w ater
le ase
ro ta
Ġo cular
en u
id rug
ar di
ar iella
Ġt ig
ion a
Ġg ly
yc lin
ri gh
Ġcon st
oc arb
ally sp
oxy s
Ġbe h
ĠG re
ĠG ossyp
yr yl
Ġk ans
Ġmon il
Ġbenz oyl
anth ella
oph yllus
ĠV inca
ass ia
Ġcor yl
own ia
Ġatt enu
rh iz
ĠZ inn
Ġmic rophylla
Ġhex a
NO N
Ġneu rom
ĠMic rotropis
hept a
activ ity
Ġregul ates
hydrox ylated
ĠCar ica
alkyl piperazine
Ġoctadec anoyl
