{"softball": 12585, "transporting": 18276, "subdued": 20442, "pulse": 8187, "##une": 9816, "pray": 11839, "mantra": 25951, "\u5f8c": 1846, "##ices": 23522, "aid": 4681, "masculine": 14818, "grassy": 22221, "sudanese": 25603, "substantial": 6937, "cycles": 12709, "liberal": 4314, "mound": 12048, "\u0635": 1284, "fades": 26784, "[unused747]": 752, "hometown": 9627, "softer": 19013, "clasped": 16763, "wilton": 26407, "rising": 4803, "addict": 26855, "amplifiers": 28633, "astronomical": 13674, "##cera": 19357, "##stov": 29473, "father": 2269, "given": 2445, "interchange": 8989, "exploit": 18077, "##zyn": 23749, "sets": 4520, "##rona": 26788, "suspected": 6878, "100": 2531, "##ting": 3436, "lungs": 8948, "swelled": 21851, "nationalism": 14594, "stereotypes": 22807, "##rwin": 27349, "reasons": 4436, "1904": 5692, "assure": 14306, "##ees": 10285, "raided": 18784, "groom": 18087, "sired": 26940, "koln": 28306, "swinging": 11820, "directions": 7826, "hurdles": 18608, "1600": 14883, "[unused69]": 70, "##horn": 9769, "\u0641": 1291, "series": 2186, "##\u06c1": 29845, "schwarz": 29058, "client": 7396, "shelton": 22230, "rehearsals": 24760, "theological": 9208, "##vah": 21927, "fatigue": 16342, "stipulated": 25729, "##ifiers": 28295, "sobbed": 25960, "juicy": 28900, "glossy": 19504, "obedience": 22645, "cafe": 7668, "\u092e": 1331, "product": 4031, "fibers": 16662, "playful": 18378, "silenced": 25030, "engaging": 11973, "##\u8a9e": 30476, "testing": 5604, "##asia": 15396, "spun": 7455, "clad": 13681, "scenery": 17363, "##100": 18613, "reservation": 11079, "damned": 9636, "media": 2865, "heavenly": 16581, "pillow": 10005, "instances": 12107, "gigantic": 20193, "innovations": 15463, "timing": 10984, "empires": 23560, "waiting": 3403, "ordained": 9492, "inhibitor": 24054, "1st": 3083, "situated": 4350, "groans": 27778, "\u1112": 1469, "##son": 3385, "spirits": 8633, "tim": 5199, "##oco": 24163, "important": 2590, "146": 16333, "[unused801]": 806, "figure": 3275, "cursing": 19752, "oriented": 8048, "brotherhood": 12865, "restored": 5854, "isabelle": 13942, "nothing": 2498, "emanuel": 21135, "bunk": 25277, "brown": 2829, "##ssing": 18965, "morally": 28980, "rai": 15547, "inuit": 25179, "conquer": 16152, "information": 2592, "weddings": 20429, "mastery": 26364, "[unused63]": 64, "770": 29065, "olivia": 7710, "ideals": 15084, "vendors": 17088, "godfather": 23834, "drawings": 9254, "\u0928": 1327, "fencing": 15962, "nick": 4172, "del": 3972, "forster": 21316, "starts": 4627, "orchestras": 19505, "simplified": 11038, "ivy": 7768, "texture": 14902, "##et": 3388, "mukherjee": 27040, "turbine": 14027, "[unused816]": 821, "feminine": 12320, "froze": 10619, "feud": 13552, "ninety": 13568, "ciudad": 20759, "1086": 28196, "1877": 7557, "##ouin": 25058, "alvin": 17348, "thy": 15177, "emir": 23434, "io": 22834, "##llen": 12179, "commence": 22825, "[unused450]": 455, "apes": 27754, "budge": 24981, "dynamo": 17205, "erect": 14908, "##taro": 28160, "venezuela": 8326, "##sling": 28886, "rib": 19395, "bridge": 2958, "[unused407]": 412, "retired": 3394, "boon": 23264, "##\u0268": 29684, "wines": 14746, "resolving": 29304, "mcintyre": 24564, "hinted": 21795, "##ksha": 28132, "nascar": 11838, "disaster": 7071, "sorrow": 14038, "brightened": 28996, "\u0982": 1346, "skill": 8066, "tying": 15233, "winds": 7266, "##oit": 28100, "meaning": 3574, "raider": 27826, "moran": 17866, "##\u667a": 30395, "##ously": 13453, "granny": 19794, "\u05d6": 1247, "published": 2405, "swimmers": 21669, "introductions": 25795, "[unused621]": 626, "focuses": 7679, "treasures": 17605, "internally": 16058, "##\u0997": 29891, "current": 2783, "##oke": 11045, "spotlight": 17763, "traversed": 27797, "plateau": 9814, "engineer": 3992, "abandon": 10824, "##force": 14821, "gamer": 27911, "gross": 7977, "lacey": 16355, "lattice": 17779, "discontinued": 8944, "cycling": 9670, "##cic": 19053, "togo": 23588, "vincent": 6320, "robertson": 9923, "chunk": 20000, "commissions": 13239, "engulfed": 24692, "jesus": 4441, "illustrate": 19141, "ashes": 11289, "lesson": 10800, "freddy": 19343, "##arians": 28369, "##grate": 22780, "##tute": 24518, "pagoda": 27387, "mare": 11941, "poured": 8542, "silesia": 21872, "[unused293]": 298, "robert": 2728, "dimensional": 8789, "linux": 11603, "servers": 14903, "serena": 14419, "delaying": 29391, "##keepers": 24764, "mckenzie": 18506, "insistence": 20616, "clothes": 4253, "##farlane": 23511, "structurally": 29060, "shut": 3844, "##udi": 21041, "pepper": 11565, "[unused489]": 494, "barracks": 10492, "calhoun": 22982, "##puram": 17809, "aback": 26575, "archaeological": 7611, "sofie": 26359, "finally": 2633, "founding": 4889, "##bee": 11306, "satisfaction": 9967, "##nick": 13542, "calling": 4214, "depictions": 20818, "\u0993": 1352, "anchored": 14453, "##hawks": 16043, "##sg": 28745, "54": 5139, "bangkok": 12627, "##\u305d": 30186, "creeping": 18266, "##nish": 24014, "[unused440]": 445, "extraordinary": 9313, "topological": 24309, "japan": 2900, "louder": 10989, "##\u2096": 30094, "##rangle": 21476, "analytical": 17826, "promotions": 15365, "##encia": 27742, "purcell": 26429, "[unused632]": 637, "fuscous": 18121, "towels": 24213, "barrett": 12712, "##udged": 27066, "status": 3570, "windsor": 10064, "horace": 12757, "mig": 19117, "##\u0255": 29680, "blaming": 24114, "gretchen": 21625, "##ars": 11650, "##del": 9247, "ginger": 14580, "mohan": 18529, "studying": 5702, "realm": 8391, "drove": 5225, "harmonic": 19452, "##ley": 3051, "sussex": 9503, "christophe": 23978, "guerrero": 16938, "optical": 9380, "width": 9381, "murdoch": 19954, "quantities": 12450, "quo": 22035, "##uj": 23049, "thicker": 19638, "1300": 19527, "hanoi": 24809, "##jad": 27875, "cereal": 20943, "expansion": 4935, "judging": 13325, "continental": 6803, "[unused838]": 843, "grinning": 11478, "terre": 25170, "##wn": 7962, "dogs": 6077, "medications": 20992, "delightful": 26380, "culminating": 16979, "skipping": 25978, "##86": 20842, "mendoza": 18021, "forrest": 16319, "elk": 18995, "coli": 27441, "liked": 4669, "busy": 5697, "\u2089": 1556, "improving": 9229, "highlights": 11637, "lair": 21039, "##bra": 10024, "guts": 18453, "grapes": 16575, "##eth": 11031, "detail": 6987, "chewed": 18362, "sylvie": 26009, "infancy": 22813, "issued": 3843, "[unused641]": 646, "starvation": 22611, "manifested": 24906, "desirable": 16166, "eine": 27665, "herb": 12810, "narrative": 7984, "stevie": 17458, "artificial": 7976, "maguire": 26196, "limitation": 22718, "demonstrators": 28337, "rhineland": 21640, "planted": 8461, "##\u00b4s": 21932, "traffic": 4026, "coloured": 11401, "outset": 26674, "came": 2234, "laird": 21964, "##ostal": 29381, "##lce": 23314, "##ast": 14083, "sadler": 29012, "society": 2554, "seeded": 13916, "##etta": 16549, "agreed": 3530, "albuquerque": 19334, "sep": 19802, "##roi": 26692, "twisting": 12814, "##\u266f": 30154, "batch": 14108, "[unused541]": 546, "railroad": 4296, "##rate": 11657, "christ": 4828, "phyllis": 20328, "##\u30ea": 30258, "im": 10047, "regatta": 26848, "land": 2455, "##etano": 28752, "reconcile": 21063, "viva": 20022, "shares": 6661, "washington": 2899, "tissues": 14095, "\u22c5": 1614, "steven": 7112, "grill": 18651, "##islav": 19834, "munchen": 25802, "jett": 22962, "\u0e01": 1409, "##lating": 22248, "endowment": 15108, "playback": 18245, "bouts": 23666, "probably": 2763, "listed": 3205, "bulletin": 13146, "busiest": 20530, "avid": 18568, "##lies": 11983, "##dation": 20207, "centennial": 15483, "misleading": 22369, "##harat": 28074, "##itaire": 29422, "predators": 12630, "\u3046": 1648, "2010s": 26817, "translators": 28396, "##kus": 22332, "forts": 15421, "wanderers": 14237, "##wu": 16050, "hewitt": 19482, "[unused612]": 617, "mud": 8494, "##ida": 8524, "york": 2259, "##ido": 13820, "harvest": 11203, "stand": 3233, "carnival": 11485, "exceeding": 17003, "\u2084": 1551, "goo": 27571, "peaceful": 9379, "atlantis": 16637, "boot": 9573, "investigator": 14064, "drowning": 14759, "able": 2583, "##ati": 10450, "russian": 2845, "potassium": 18044, "untouched": 22154, "exhaustion": 15575, "unpopular": 19657, "##ccus": 27631, "transforming": 17903, "lieutenant": 3812, "##cher": 7474, "office": 2436, "transferred": 4015, "\u05d2": 1243, "disrupt": 23217, "voivodeship": 7225, "damages": 12394, "straightforward": 19647, "##ious": 6313, "significance": 7784, "archaeology": 12009, "disruption": 20461, "detectors": 25971, "rna": 12987, "1658": 28944, "ambush": 15283, "##pire": 20781, "graduated": 3852, "##mic": 7712, "definitive": 15764, "[unused396]": 401, "volumes": 6702, "##lim": 17960, "[unused430]": 435, "28": 2654, "rae": 14786, "orphanage": 18504, "argued": 5275, "cooperative": 10791, "##frid": 27439, "tommy": 6838, "antibodies": 22931, "eaten": 8828, "##weather": 28949, "##eter": 15141, "##orro": 29459, "fort": 3481, "devin": 23601, "[unused567]": 572, "fed": 7349, "##phones": 19093, "##hart": 10686, "awake": 8300, "yong": 18999, "##top": 14399, "cds": 14340, "smackdown": 22120, "relates": 14623, "##bular": 28808, "1819": 12552, "beaches": 12212, "##rce": 19170, "fingered": 28842, "coast": 3023, "crafted": 19275, "badge": 10780, "upstream": 13909, "##pkins": 29531, "[unused745]": 750, "vie": 20098, "##duk": 28351, "fangs": 11738, "fair": 4189, "assassination": 10102, "##metric": 12589, "sides": 3903, "challenges": 7860, "vickers": 18571, "warehouses": 23319, "hydra": 26018, "attended": 3230, "[unused28]": 29, "flourish": 24299, "highlighted": 11548, "##\u0632": 29823, "##\u5fa1": 30373, "idle": 18373, "mccall": 25790, "ama": 25933, "neill": 11511, "##ng": 3070, "align": 25705, "absolutely": 7078, "\u0936": 1336, "midway": 12213, "scorer": 10835, "carpenter": 10533, "equilibrium": 14442, "immortal": 12147, "##issa": 21205, "##bf": 29292, "ice": 3256, "##dote": 23681, "although": 2348, "[unused766]": 771, "coached": 8868, "reckless": 18555, "veterinary": 15651, "registered": 5068, "ashton": 13772, "astronomers": 26357, "sleep": 3637, "##inger": 9912, "distant": 6802, "constituted": 11846, "##schen": 23796, "win": 2663, "bills": 8236, "laptop": 12191, "seals": 13945, "corp": 13058, "artistic": 6018, "milwaukee": 9184, "dismissed": 7219, "distribute": 16062, "staying": 6595, "chad": 9796, "pressured": 25227, "##\u2206": 30122, "sim": 21934, "constantinople": 11776, "sylvester": 20016, "##ttal": 28200, "##\u30a2": 30219, "paid": 3825, "naval": 3987, "area": 2181, "##izes": 10057, "achievements": 10106, "meg": 12669, "shallow": 8467, "##going": 26966, "frankenstein": 22478, "jamie": 6175, "similarities": 12319, "[unused432]": 437, "reviewing": 15252, "angled": 18756, "walters": 19097, "stu": 24646, "deity": 12764, "stanza": 29509, "lion": 7006, "##cor": 27108, "though": 2295, "severely": 8949, "gunfire": 16978, "##dad": 14697, "##elial": 24587, "##[": 29634, "stammered": 28532, "applause": 20737, "gabby": 27183, "squinted": 17425, "caller": 20587, "commencement": 20561, "favorably": 27597, "[unused540]": 545, "##oi": 10448, "##founded": 21001, "finalized": 23575, "integers": 24028, "##ught": 18533, "wrexham": 27119, "was": 2001, "francisco": 3799, "chapman": 11526, "communicated": 24162, "rush": 5481, "movements": 5750, "\u77f3": 1922, "1855": 8492, "kent": 5982, "\u83ef": 1942, "indianapolis": 9506, "sahara": 19604, "manifold": 19726, "[unused509]": 514, "salad": 16521, "##\u3051": 30180, "##ce": 3401, "##pio": 22071, "##ischen": 24488, "640": 19714, "##km": 22287, "##hui": 20552, "harriet": 14207, "sonora": 26647, "mirror": 5259, "succeeding": 13034, "##ck": 3600, "anomaly": 28685, "\u2113": 1577, "were": 2020, "brandon": 8825, "##asco": 28187, "##sible": 19307, "soda": 14904, "buds": 26734, "##ivating": 17441, "tracker": 27080, "##\u9053": 30483, "mystic": 17477, "##ality": 23732, "##\u043b": 29436, "coupled": 11211, "slavery": 8864, "narrows": 25142, "before": 2077, "zhu": 15503, "##\u06cc": 24830, "##gold": 21270, "[unused829]": 834, "grease": 21956, "\u4e8b": 1751, "convert": 10463, "##onga": 26356, "checkpoint": 26520, "##haling": 23896, "frowns": 29303, "##sis": 6190, "4000": 20143, "bmg": 24499, "bombay": 11831, "prussia": 10724, "portrayed": 6791, "terms": 3408, "link": 4957, "aristocratic": 19774, "##dened": 24589, "##ater": 24932, "benign": 28378, "indefinitely": 20733, "specially": 11974, "##ady": 18632, "fiba": 13651, "1732": 27582, "ke": 17710, "##mann": 5804, "leto": 24543, "shake": 6073, "##icles": 20921, "##aia": 27131, "diversity": 8906, "rabbits": 20403, "andreas": 12460, "raion": 24235, "##ums": 18163, "##stand": 21515, "accumulation": 20299, "rayon": 26810, "gore": 13638, "##unas": 23904, "exile": 8340, "##ungen": 23239, "offered": 3253, "##hit": 16584, "trough": 23389, "postgraduate": 15438, "definitions": 15182, "harden": 28751, "\u7248": 1907, "headache": 14978, "collapsing": 22724, "often": 2411, "cottages": 18918, "follow": 3582, "regulations": 7040, "\u05ea": 1267, "inspection": 10569, "torres": 13101, "steak": 21475, "contemplated": 23133, "gunnar": 26138, "wally": 18202, "rents": 28206, "balcony": 11673, "runes": 29161, "tasked": 13487, "mma": 21021, "stew": 20717, "winter": 3467, "rolled": 4565, "prayed": 14283, "[unused840]": 845, "greenhouse": 16635, "##pack": 23947, "synchronized": 25549, "face": 2227, "sectional": 27197, "##\u00b0": 7737, "[unused62]": 63, "theorem": 9872, "flown": 10583, "malaria": 19132, "mercy": 8673, "newsletter": 17178, "affiliates": 18460, "hurting": 11878, "thou": 15223, "guerrilla": 15722, "##zhi": 19436, "##\u0434": 29742, "ewing": 24023, "edmond": 21773, "genome": 13458, "##que": 4226, "aviv": 12724, "marlene": 26921, "chester": 8812, "gallant": 26984, "layout": 9621, "##berry": 9766, "##hedron": 26440, "conducting": 9283, "received": 2363, "ghana": 9701, "driveway": 11202, "dying": 5996, "complete": 3143, "tempted": 16312, "spur": 12996, "monarchs": 19799, "##astic": 20875, "self": 2969, "larger": 3469, "shared": 4207, "ash": 6683, "hasn": 8440, "new": 2047, "##ge": 3351, "##ok": 6559, "heiress": 20020, "scented": 25738, "##iferous": 23930, "gate": 4796, "##ze": 4371, "stepping": 9085, "lover": 7089, "hawaiian": 12188, "galley": 27124, "ripple": 24644, "failure": 4945, "##leen": 24129, "monitor": 8080, "doesn": 2987, "watching": 3666, "##raine": 26456, "tire": 12824, "liverpool": 6220, "pinyin": 9973, "oversight": 15709, "##oped": 24174, "endorsement": 20380, "cornwall": 10387, "pinto": 25066, "worlds": 8484, "ridden": 15230, "bowie": 14598, "audio": 5746, "epa": 19044, "annapolis": 24889, "doctrine": 8998, "[unused856]": 861, "detroit": 5626, "johns": 11545, "reject": 15454, "##utable": 23056, "\u09a7": 1365, "corner": 3420, "rocky": 6857, "kathy": 14986, "khalifa": 27925, "singleton": 28159, "congratulations": 23156, "constable": 12294, "culture": 3226, "attribute": 17961, "reputed": 22353, "apprentice": 13357, "excerpt": 28142, "##zak": 20685, "flattened": 16379, "##\u30fb": 30264, "afl": 10028, "sam": 3520, "passengers": 5467, "bon": 14753, "reggae": 15662, "##zza": 20715, "eton": 21687, "hurrying": 27951, "bulls": 12065, "##yala": 28617, "reiterated": 28960, "sonata": 14681, "##ro": 3217, "pendleton": 24349, "depth": 5995, "splashed": 22055, "rhodes": 10588, "anyway": 4312, "##\u05d3": 29791, "elephant": 10777, "pau": 29025, "340": 16029, "vision": 4432, "ringing": 13060, "##borne": 19288, "singled": 25369, "us": 2149, "\u300d": 1642, "\u028e": 1135, "fitted": 7130, "massachusetts": 4404, "conceived": 10141, "vhf": 27527, "arrived": 3369, "anita": 12918, "evacuated": 13377, "[unused411]": 416, "2000s": 8876, "[unused679]": 684, "&": 1004, "babe": 11561, "##nched": 19282, "morgan": 5253, "trickle": 26027, "bodo": 28137, "##\u03bf": 29730, "kylie": 9008, "socialist": 6102, "1603": 25625, "##a": 2050, "hyun": 21108, "galician": 28830, "vegetation": 10072, "shoulder": 3244, "highlighting": 20655, "##39": 23499, "lincolnshire": 16628, "[unused563]": 568, "fiesta": 24050, "switching": 11991, "##tracted": 24301, "colonists": 15526, "overlap": 17702, "atv": 29108, "\u11af": 1486, "oman": 16640, "red": 2417, "grandma": 13055, "parliament": 3323, "portsmouth": 10913, "mclean": 17602, "j": 1046, "mutually": 20271, "jacques": 7445, "shafts": 20542, "credible": 23411, "share": 3745, "grabbing": 9775, "bias": 13827, "claw": 15020, "##bn": 24700, "##ference": 25523, "see": 2156, "passport": 12293, "octave": 21817, "colombian": 13598, "plucked": 20780, "further": 2582, "oakland": 9182, "##cratic": 17510, "universite": 22176, "##rrow": 28597, "dams": 17278, "babies": 10834, "caspian": 25893, "demonstrate": 10580, "technically": 10892, "variations": 8358, "tonga": 20188, "rhino": 24091, "pilasters": 26752, "##\u0f63": 29971, "ithaca": 27939, "indicator": 17245, "arrows": 12563, "322": 23768, "##folia": 21710, "##\u062f": 15394, "cot": 26046, "##tadt": 18808, "chloride": 19057, "hesitantly": 24626, "watches": 12197, "origins": 7321, "phylogenetic": 23192, "expression": 3670, "vertigo": 28246, "aspen": 18567, "mobility": 12969, "##abia": 29039, "layered": 21323, "maitland": 25511, "##mad": 25666, "##mity": 16383, "irrelevant": 22537, "##\u4e8c": 30278, "implying": 20242, "compilations": 22754, "toes": 10393, "pageant": 12438, "441": 28015, "##\u0446": 29751, "petitions": 24320, "unitarian": 25477, "protege": 28567, "lasers": 23965, "drill": 12913, "phil": 6316, "certificates": 17987, "##\u2013": 30051, "brushing": 12766, "?": 1029, "sadness": 12039, "grafton": 28680, "composing": 16572, "worcestershire": 20218, "aft": 16638, "cracked": 9630, "draper": 23641, "copying": 24731, "force": 2486, "hercules": 15067, "quaker": 18844, "##\u21a6": 30116, "\u064a": 1300, "het": 21770, "heller": 25038, "eyelashes": 25150, "avoiding": 9992, "##\u0f58": 29968, "##rran": 28327, "abrupt": 18772, "##lices": 29146, "employs": 13495, "crowns": 24364, "visiting": 5873, "fry": 14744, "cooking": 8434, "philips": 19087, "##mur": 20136, "costing": 22173, "fame": 4476, "fundamentally": 24670, "\u307b": 1676, "expecting": 8074, "rourke": 24400, "gravity": 8992, "##\u043e": 14150, "[unused967]": 972, "\u0438": 1188, "281": 22955, "revolver": 17863, "[unused73]": 74, "possesses": 14882, "homage": 14822, "chosen": 4217, "##under": 20824, "##roved": 26251, "already": 2525, "horizon": 9154, "conclude": 16519, "##riz": 21885, "ezio": 23043, "inmate": 24467, "philadelphia": 4407, "reactivated": 28577, "redesigned": 17051, "[unused198]": 203, "##\u1d56": 30040, "colombia": 7379, "mathias": 20494, "intensity": 8015, "##ym": 24335, "rochester": 10541, "seduction": 26962, "weber": 13351, "1906": 5518, "artists": 3324, "shortly": 3859, "southwestern": 8772, "##rana": 16737, "porsche": 16099, "doe": 18629, "dvd": 4966, "queens": 8603, "even": 2130, "##\u535a": 30312, "labyrinth": 24239, "alert": 9499, "##ota": 17287, "proceedings": 8931, "crowley": 20748, "favourite": 8837, "[unused227]": 232, "revolt": 10073, "warwickshire": 18430, "adi": 27133, "madeline": 16974, "thug": 26599, "arising": 17707, "veronica": 13133, "bordered": 11356, "cade": 18615, "[unused251]": 256, "faults": 19399, "[unused383]": 388, "webster": 11635, "##t": 2102, "opens": 7480, "forwards": 19390, "disappointed": 9364, "##\u7fa9": 30462, "##beau": 26401, "\u2013": 1516, "bucharest": 14261, "consumed": 10202, "inter": 6970, "everybody": 7955, "reef": 12664, "abortion": 11324, "allegheny": 21192, "female": 2931, "rail": 4334, "stephane": 26624, "william": 2520, "budapest": 10926, "environments": 10058, "fbi": 8495, "storyline": 9994, "downhill": 19448, "[unused415]": 420, "ns": 24978, "[unused728]": 733, "##ited": 17572, "degree": 3014, "mergers": 28585, "early": 2220, "handling": 8304, "storms": 12642, "##cake": 17955, "1771": 20708, "dictated": 23826, "lick": 15385, "##uil": 19231, "##ut": 4904, "harmless": 19741, "##tius": 22638, "bianca": 18051, "[unused20]": 21, "marissa": 22767, "rafe": 15819, "vocabulary": 16188, "excuses": 21917, "allows": 4473, "enhancing": 20226, "mastering": 11495, "##gie": 11239, "twilight": 13132, "triangles": 27189, "incorporates": 12374, "1874": 7586, "[unused645]": 650, "##h": 2232, "hip": 5099, "ribs": 10335, "##mum": 27147, "examined": 8920, "swallowing": 18468, "huffed": 25014, "207": 19843, "hysterical": 25614, "soared": 29127, "##rgh": 27172, "psychology": 6825, "icons": 18407, "concept": 4145, "actively": 8851, "canon": 9330, "[unused272]": 277, "graduates": 10845, "simeon": 24371, "dragons": 8626, "fiercely": 16265, "gerard": 11063, "pains": 20398, "1016": 28707, "\u2295": 1612, "hancock": 13849, "resort": 7001, "nemesis": 21363, "headwaters": 25345, "destroying": 9846, "hushed": 24033, "##cus": 7874, "mir": 14719, "##azi": 16103, "fat": 6638, "theatrical": 8900, "\u0bbe": 1395, "lifelong": 13506, "policing": 21107, "##cap": 17695, "##lia": 6632, "agrees": 10217, "infant": 10527, "1811": 13086, "[unused466]": 471, "1848": 7993, "51st": 26017, "knocks": 21145, "##\u099f": 29895, "cite": 21893, "downwards": 28457, "vh1": 26365, "hendrix": 20645, "romania": 6339, "1898": 6068, "analysis": 4106, "stanford": 8422, "180": 8380, "distraction": 14836, "\u0290": 1136, "##ization": 3989, "asphalt": 16295, "rivals": 9169, "holstein": 18864, "fines": 21892, "cyprus": 9719, "incurred": 22667, "##\u2154": 30110, "koreans": 24651, "filippo": 28669, "decca": 21079, "milling": 22491, "coastline": 15458, "redwood": 27552, "contribution": 6691, "infrastructure": 6502, "axe": 12946, "##cia": 7405, "1804": 13140, "##xton": 14226, "hoffmann": 24437, "senate": 4001, "darkest": 23036, "cochin": 28982, "##ehan": 24660, "mist": 11094, "##has": 14949, "prentice": 23429, "hash": 23325, "rustic": 27471, "##mers": 16862, "##\u795e": 30451, "[unused710]": 715, "sailing": 8354, "ndp": 21915, "enclosure": 17539, "including": 2164, "labor": 4450, "1780": 15051, "comfort": 7216, "madam": 21658, "##kley": 22315, "cartwright": 27513, "##\u884c": 30471, "aloud": 12575, "breathless": 16701, "chattanooga": 23351, "##29": 24594, "soprano": 10430, "lauderdale": 23520, "scarlett": 20862, "caste": 14542, "sp": 11867, "##rs": 2869, "distributors": 22495, "wellington": 8409, "connectivity": 20831, "##ph": 8458, "pass": 3413, "patch": 8983, "dynasties": 23014, "tract": 12859, "remake": 12661, "1664": 28485, "finished": 2736, "torment": 21741, "verve": 29230, "[unused101]": 106, "##\u0996": 29890, "honestly": 9826, "countess": 11716, "symbolism": 22050, "restless": 15035, "heir": 8215, "controversy": 6704, "penalty": 6531, "##dez": 24601, "[unused66]": 67, "moroccan": 17494, "[unused426]": 431, "wentworth": 20572, "instinct": 12753, "electors": 19165, "\u30e0": 1725, "held": 2218, "pinning": 22866, "sigh": 6682, "grape": 14722, "lay": 3913, "noctuidae": 24893, "posters": 14921, "##outs": 12166, "newbury": 29457, "\u4e4b": 1749, "##ncy": 9407, "[unused303]": 308, "[unused459]": 464, "##ctum": 27272, "word": 2773, "offensive": 5805, "sirius": 23466, "widely": 4235, "citizens": 4480, "yorker": 19095, "##ipes": 28108, "toned": 27604, "garments": 21902, "palo": 24326, "swallow": 10577, "##chison": 27795, "305": 20405, "musica": 21137, "prescribed": 16250, "##\u8c37": 30477, "\u05d5": 1246, "islander": 12544, "160": 8148, "theresa": 14781, "footprints": 24629, "\u0baf": 1390, "intercity": 20651, "azure": 24296, "anthropological": 28395, "bodies": 4230, "altering": 22552, "[unused772]": 777, "\u10d1": 1439, "##\u0631": 17149, "##spar": 27694, "capturing": 11847, "classified": 6219, "christi": 21359, "##nant": 16885, "shrug": 13409, "##\u05e9": 29812, "allocation": 16169, "grades": 7022, "theodore": 10117, "bind": 14187, "clarissa": 25260, "literature": 3906, "inmates": 13187, "niger": 16842, "[unused305]": 310, "providers": 11670, "surfaces": 9972, "wears": 11651, "flush": 13862, "las": 5869, "treasury": 9837, "canonical": 18562, "rule": 3627, "slovak": 12747, "mas": 16137, "##ivate": 21466, "##iness": 9961, "##iny": 24300, "productivity": 15836, "glittering": 20332, "1738": 28009, "sectors": 11105, "holding": 3173, "##mons": 16563, "enthusiastically": 24935, "confidently": 28415, "[unused655]": 660, "##\u2075": 30074, "80": 3770, "disliked": 18966, "starr": 14330, "linking": 11383, "drake": 7867, "petersen": 22615, "conservatoire": 29233, "treat": 7438, "##\u300b": 30166, "fuss": 28554, "roy": 6060, "ordinance": 16692, "##sty": 21756, "sandstone": 11694, "fabulous": 18783, "formulated": 19788, "daniels": 13196, "asturias": 26798, "vacant": 10030, "[unused892]": 897, "pedal": 15749, "provoke": 27895, "327": 28469, "wasting": 18313, "discomfort": 17964, "touched": 5028, "wanting": 5782, "irritated": 15560, "markus": 23030, "tyrant": 26508, "falling": 4634, "pick": 4060, "occasions": 6642, "submarines": 12622, "longed": 23349, "bosch": 25936, "imports": 17589, "permitting": 24523, "billboard": 4908, "hundreds": 5606, "##ject": 20614, "basha": 26074, "##\u209b": 30098, "##ath": 8988, "withdraw": 10632, "transmitter": 11659, "district": 2212, "cope": 11997, "upwards": 14873, "lad": 14804, "supplied": 8127, "\u8279": 1939, "##mack": 26945, "grew": 3473, "milan": 6954, "lila": 19286, "##graph": 14413, "##bilities": 14680, "procession": 14385, "drones": 24633, "##ius": 4173, "302": 22060, "extremely": 5186, "ornaments": 24005, "backstroke": 28373, "##je": 6460, "wear": 4929, "brighter": 16176, "##arion": 27548, "maverick": 27187, "femme": 26893, "dario": 26800, "easily": 4089, "##nation": 9323, "\u09c0": 1380, "mayo": 14415, "cape": 4880, "candace": 22905, "[unused479]": 484, "robinson": 6157, "violently": 14196, "leiden": 20329, "1858": 8517, "medium": 5396, "fates": 26417, "bands": 4996, "linen": 17517, "mystery": 6547, "befriended": 23386, "grove": 7676, "##zd": 26494, "northern": 2642, "yahoo": 20643, "[unused167]": 172, "tun": 27112, "[unused591]": 596, "##uw": 25974, "for": 2005, "brady": 10184, "380": 17014, "musical": 3315, "gills": 29468, "tub": 14366, "##tling": 15073, "expenditures": 22697, "ale": 15669, "\u044f": 1210, "reddy": 18998, "buddhist": 7992, "eddy": 16645, "##uno": 27819, "[unused350]": 355, "##ix": 7646, "[unused571]": 576, "chatting": 22331, "\u1d49": 1499, "cyber": 16941, "suppress": 16081, "[unused288]": 293, "leinster": 15684, "heron": 22914, "sings": 10955, "poll": 8554, "delivered": 5359, "intellectual": 7789, "##stein": 8602, "watts": 11042, "repeating": 15192, "##adi": 17190, "\u028a": 1132, "soc": 27084, "##cio": 9793, "prefers": 19233, "##beat": 19442, "morning": 2851, "specials": 19247, "[unused31]": 32, "colourful": 26102, "nasal": 19077, "footballer": 4362, "ponytail": 18865, "freed": 10650, "pegasus": 26606, "pepsi": 27237, "central": 2430, "captured": 4110, "plea": 14865, "discontent": 27648, "militias": 29271, "spheres": 19885, "parades": 26635, "administering": 28965, "whaling": 23687, "lo": 8840, "delegation": 10656, "methods": 4725, "fang": 15197, "mingled": 25959, "glacier": 10046, "terribly": 16668, "informant": 28694, "##gman": 25494, "extends": 8908, "disasters": 18665, "lauren": 10294, "dissolve": 21969, "downfall": 22252, "unrest": 16591, "upstate": 29530, "conducts": 17976, "angry": 4854, "trusting": 19836, "##\u00a2": 29645, "davis": 4482, "ripped": 9157, "swimmer": 13361, "tribune": 10969, "ode": 24040, "##girl": 15239, "##ncia": 22750, "obstacles": 15314, "1758": 16832, "television": 2547, "lia": 22393, "##red": 5596, "haunted": 11171, "experiencing": 13417, "touching": 7244, "##line": 4179, "won": 2180, "inverted": 20037, "\u3053": 1655, "130": 7558, "witnessing": 24740, "rare": 4678, "noteworthy": 19144, "artwork": 8266, "##grants": 27444, "##ways": 14035, "punjab": 9213, "involve": 9125, "hacker": 23307, "street": 2395, "\u4ec1": 1758, "bing": 17620, "conversion": 7584, "[unused264]": 269, "\u25a0": 1617, "cooks": 26929, "\u10e3": 1454, "##atz": 20501, "survive": 5788, "deafening": 28840, "rupert": 14641, "inform": 12367, "sideways": 12579, "log": 8833, "bliss": 13670, "survivor": 12084, "selection": 4989, "lent": 15307, "inherit": 22490, "worthless": 22692, "felicia": 27579, "[unused461]": 466, "ski": 8301, "symphonic": 18957, "##clusive": 23633, "mess": 6752, "\u3092": 1690, "surrounding": 4193, "\u672c": 1876, "lynne": 26938, "axis": 8123, "\u76ee": 1918, "activities": 3450, "1978": 3301, "grupo": 26678, "vienna": 6004, "upside": 14961, "enoch": 28178, "##ption": 16790, "##tism": 17456, "boosted": 28043, "elaine": 15263, "\u0940": 1342, "whereby": 13557, "unnoticed": 22719, "sinatra": 19643, "summary": 12654, "##mussen": 29134, "impressions": 19221, "[unused313]": 318, "##loe": 26846, "[unused711]": 716, "declined": 6430, "glendale": 27649, "lucia": 12337, "descriptive": 22726, "flotilla": 17150, "cook": 5660, "casimir": 24701, "mutual": 8203, "embodied": 25405, "sumo": 28193, "wrist": 7223, "\u5ba3": 1823, "macquarie": 23903, "sic": 14387, "[unused815]": 820, "greeks": 13176, "##dial": 27184, "verde": 16184, "criticisms": 19628, "plaques": 28487, "potential": 4022, "ferguson": 11262, "instinctively": 16607, "trams": 19216, "mommy": 20565, "[unused349]": 354, "##lars": 28695, "after": 2044, "references": 7604, "##rified": 22618, "gifted": 12785, "disappears": 17144, "lynx": 22636, "bengals": 23227, "##\u7701": 30446, "titles": 4486, "\u661f": 1866, "honorary": 5756, "##ji": 4478, "##nsor": 29577, "gutierrez": 20836, "##ning": 5582, "ahmedabad": 27249, "eddie": 5752, "soho": 23771, "##ignon": 24796, "plasma": 12123, "##ku": 5283, "farmland": 16439, "sip": 10668, "93": 6109, "holt": 12621, "eureka": 21142, "pair": 3940, "trilogy": 11544, "shoreline": 17721, "overheard": 20443, "subconscious": 27952, "impromptu": 29213, "handy": 18801, "asthma": 26180, "[unused836]": 841, "decision": 3247, "1840": 8905, "consistency": 18700, "##yal": 21095, "ceilings": 21098, "festivals": 7519, "##bers": 17198, "ferreira": 26135, "ignatius": 26841, "[unused689]": 694, "linebacker": 15674, "eliminated": 5892, "rankings": 10385, "ochreous": 23474, "##ellant": 24178, "[unused741]": 746, "socrates": 26772, "covert": 19813, "bulldog": 28628, "vampire": 4393, "sant": 15548, "spoiled": 19582, "meat": 6240, "photos": 7760, "##ically": 15004, "##rzburg": 29136, "scent": 6518, "##bling": 9709, "##dt": 11927, "45": 3429, "##ron": 4948, "##gate": 5867, "##hian": 14204, "##base": 15058, "cartoonist": 19659, "incorporation": 16935, "weed": 17901, "correlation": 16902, "1560": 29185, "hepatitis": 28389, "\u0431": 1181, "performance": 2836, "emigrated": 11367, ".": 1012, "moaned": 12557, "meyrick": 15228, "interrupted": 7153, "accusing": 16723, "##note": 22074, "lowest": 7290, "tried": 2699, "indifferent": 24436, "sodium": 13365, "keeper": 10684, "reservations": 17829, "associations": 8924, "ironic": 19313, "subspecies": 11056, "torpedoes": 18544, "\uff0f": 1992, "sheridan": 13243, "\u30aa": 1699, "##kko": 22426, "microsoft": 7513, "activist": 7423, "blaze": 15347, "renewal": 14524, "asteroid": 12175, "sufi": 21845, "cracks": 15288, "mayer": 14687, "optics": 21026, "portrayal": 13954, "earrings": 27212, "uranium": 14247, "ready": 3201, "impress": 17894, "departmental": 28912, "cracking": 15729, "##sos": 17063, "cnn": 13229, "telecast": 28803, "\u5e73": 1839, "440": 17422, "[unused737]": 742, "residue": 21755, "starboard": 25211, "byrd": 17845, "bloomberg": 22950, "trembling": 10226, "ina": 27118, "pounds": 7038, "annually": 6604, "materials": 4475, "scales": 9539, "ingredients": 12760, "cunning": 23626, "##tters": 24168, "m2": 25525, "quarterfinal": 29380, "1656": 28434, "singapore": 5264, "\u10d5": 1443, "afghanistan": 7041, "\u05e1": 1258, "circuit": 4984, "##erly": 12561, "[unused731]": 736, "synagogue": 13067, "abel": 16768, "maid": 10850, "\u30fc": 1739, "geometric": 14965, "donations": 11440, "leaks": 29324, "hubert": 15346, "photon": 26383, "adhere": 25276, "domingo": 15586, "riverside": 12497, "##icular": 21412, "1727": 25350, "bloomington": 26372, "accurately": 14125, "bushes": 14568, "garth": 21523, "limb": 15291, "bullock": 25200, "documentaries": 15693, "magnificent": 12047, "polls": 14592, "overture": 25052, "dl": 21469, "reconstructed": 14858, "pearce": 19560, "loyalty": 9721, "benny": 11945, "##ub": 12083, "mace": 19382, "taxi": 10095, "2500": 25108, "willingly": 18110, "pollard": 25513, "reduction": 7312, "image": 3746, "disciple": 17849, "##\u30a1": 30218, "cradled": 23774, "worried": 5191, "grandfather": 5615, "jenks": 15119, "hormones": 20752, "saxe": 24937, "rises": 9466, "enhancement": 22415, "hoax": 28520, "adapt": 15581, "matches": 3503, "grossing": 18244, "licking": 17033, "##orum": 20527, "snaps": 20057, "rooted": 15685, "thrust": 7400, "fei": 24664, "mata": 22640, "##\u0648": 29836, "gettysburg": 22577, "radically": 25796, "\u5143": 1769, "documentary": 4516, "##rn": 6826, "defect": 21262, "hum": 14910, "##rval": 26585, "##land": 3122, "gunter": 27834, "unaffected": 24720, "##rop": 18981, "saunders": 15247, "possibility": 6061, "\u2202": 1592, "##minating": 27932, "3a": 23842, "sami": 17015, "larsen": 20094, "looming": 23430, "doses": 21656, "rutherford": 18472, "barrister": 19805, "sites": 4573, "wandered": 13289, "##wind": 11101, "elle": 15317, "contingent": 15445, "travelling": 8932, "factual": 25854, "\u27e8": 1629, "party": 2283, "commentator": 12268, "[unused624]": 629, "corona": 21887, "arthur": 4300, "ward": 4829, "efficiently": 18228, "constructions": 21913, "gaped": 23832, "kerry": 11260, "ninth": 6619, "blogs": 23012, "##edge": 24225, "cheek": 5048, "##\u6c38": 30422, "kidnap": 22590, "discussed": 6936, "withstand": 19319, "vaulted": 24616, "rosalie": 29564, "transform": 10938, "heath": 9895, "derivative": 13819, "##\u307b": 30202, "henrik": 18745, "[unused704]": 709, "am": 2572, "purchase": 5309, "##hea": 20192, "##aca": 19629, "paulo": 9094, "##list": 9863, "##ating": 5844, "earliest": 5700, "##\u897f": 30473, "##tility": 18724, "nearly": 3053, "##\u1d65": 30045, "born": 2141, "firearms": 13780, "franchise": 6329, "chasing": 11777, "auckland": 8666, "wasps": 23146, "horsemen": 25431, "cardiovascular": 22935, "ska": 24053, "[unused127]": 132, "utc": 11396, "dusseldorf": 18160, "algebra": 11208, "[unused465]": 470, "sunglasses": 17072, "breakaway": 26321, "eyebrows": 8407, "nope": 16780, "mughal": 17877, "##cliff": 27580, "ahmad": 10781, "falls": 4212, "##mc": 12458, "gym": 9726, "data": 2951, "commemorate": 13415, "likelihood": 16593, "remembering": 10397, "yates": 20356, "ss": 7020, "##dley": 14232, "supremacy": 22006, "##mun": 23041, "##\u099b": 29893, "\u5149": 1770, "budgets": 26178, "appreciated": 12315, "isolated": 7275, "vladimir": 8748, "villa": 6992, "snap": 10245, "ct": 14931, "##eve": 18697, "khmer": 19472, "sergey": 22703, "worry": 4737, "rebels": 8431, "terrorism": 10130, "\u2229": 1604, "incorrectly": 19721, "aim": 6614, "parking": 5581, "noticed": 4384, "volleyball": 7454, "pest": 20739, "cello": 10145, "\u1d3a": 1494, "soaring": 23990, "##sky": 5874, "fitzpatrick": 26249, "would": 2052, "nassau": 14646, "sanchez": 10568, "olympiad": 25225, "##ej": 20518, "sox": 9175, "lottery": 15213, "finely": 22126, "bipolar": 29398, "little": 2210, "[unused616]": 621, "edo": 18314, "##\u30eb": 30259, "vicky": 22845, "asks": 5176, "##ology": 6779, "1997": 2722, "boca": 22765, "451": 28161, "##hering": 22658, "feelings": 5346, "outright": 13848, "watson": 7908, "olds": 19457, "circulation": 9141, "bunker": 15742, "coaster": 16817, "supplementary": 26215, "tormented": 29026, "donnell": 18016, "\u03c9": 1179, "[unused953]": 958, "preacher": 14512, "##avi": 18891, "shape": 4338, "motifs": 17366, "developers": 9797, "amidst": 17171, "bugs": 12883, "wil": 19863, "greenish": 23753, "##ega": 29107, "##cards": 17965, "[unused756]": 761, "collective": 7268, "##hab": 25459, "lithium": 22157, "bacterium": 24024, "patty": 17798, "##rdial": 25070, "lincoln": 5367, "##ba": 3676, "spade": 23288, "##itha": 26054, "##\u8ecd": 30481, "fukuoka": 26998, "paxton": 27765, "quake": 27785, "##\u8fb6": 30482, "solar": 5943, "traveled": 6158, "counts": 9294, "anniversary": 5315, "towers": 7626, "answer": 3437, "139": 16621, "hurled": 24025, "[unused470]": 475, "suburb": 7575, "swings": 18755, "##erian": 27549, "##ad": 4215, "##rika": 23778, "married": 2496, "##kal": 12902, "archie": 13255, "tidy": 29369, "boxed": 27554, "1870": 6940, "greece": 5483, "kills": 8563, "segregation": 18771, "ceremonies": 10912, "kappa": 16000, "hermitage": 24708, "imply": 19515, "##hly": 27732, "grants": 8624, "seldom": 15839, "##lash": 27067, "1960s": 4120, "##kling": 20260, "native": 3128, "relaunched": 26391, "antique": 14361, "chair": 3242, "bridgeport": 27986, "understanding": 4824, "passions": 25289, "berwick": 24957, "rural": 3541, "at": 2012, "calf": 19134, "maximus": 21692, "##ulton": 22145, "indicted": 21801, "payments": 10504, "med": 19960, "como": 18609, "##\u0995": 29889, "\u2191": 1584, "highest": 3284, "compiling": 21953, "purposely": 24680, "woke": 8271, "lose": 4558, "complexion": 28838, "docks": 15093, "bothering": 17067, "next": 2279, "disappear": 10436, "adjustment": 19037, "sarcasm": 20954, "newmarket": 22489, "contrast": 5688, "settings": 10906, "web": 4773, "dangers": 16796, "flatly": 24295, "##eg": 13910, "properly": 7919, "##zio": 12426, "long": 2146, "romanesque": 17135, "affordable": 15184, "##riding": 21930, "##br": 19892, "disconnected": 23657, "batavia": 28917, "planet": 4774, "##tate": 12259, "urgently": 25478, "scotch": 18937, "stolen": 7376, "273": 25371, "pulses": 23894, "primaries": 27419, "##ified": 7810, "genie": 22519, "condemn": 28887, "[unused601]": 606, "##app": 29098, "novice": 23131, "municipality": 3250, "framed": 10366, "[unused701]": 706, "warner": 6654, "forsyth": 29434, "[unused551]": 556, "gamma": 13091, "246": 22376, "facilitates": 27777, "pointless": 23100, "dysfunction": 28466, "303": 19988, "\u6587": 1861, "\u2248": 1606, "cree": 27831, "israel": 3956, "unsure": 12422, "francoise": 28979, "range": 2846, "acceptance": 9920, "justified": 15123, "[unused734]": 739, "[unused713]": 718, "\u0289": 1131, "38": 4229, "causes": 5320, "colored": 6910, "diverse": 7578, "descend": 18855, "passports": 19494, "\u0baa": 1388, "plato": 18858, "ismail": 19214, "universally": 21186, "captives": 21496, "disorders": 10840, "underway": 14128, "shareholders": 15337, "complied": 26946, "##\u6625": 30393, "##\u2010": 30048, "undermine": 25174, "everton": 18022, "\u03b7": 1161, "dai": 18765, "interviewing": 27805, "arlington": 13929, "##f": 2546, "marjorie": 21562, "##holder": 14528, "journalism": 8083, "determining": 12515, "puppet": 13997, "midwest": 13608, "effects": 3896, "herself": 2841, "neumann": 22860, "confidential": 18777, "##\u0629": 19433, "bordeaux": 16384, "alarmed": 19260, "date": 3058, "armistice": 19125, "arm": 2849, "##ych": 17994, "ucla": 12389, "prefecture": 7498, "##\u060c": 29814, "##ises": 13087, "elementary": 4732, "##\u3089": 30211, "##ances": 26755, "obama": 8112, "##ple": 10814, "adele": 17623, "richardson": 9482, "philippine": 7802, "253": 23254, "##\u0111": 29671, "proto": 15053, "charlie": 4918, "inaccurate": 24949, "initiatives": 11107, "sterling": 10933, "prevalence": 20272, "philanthropic": 25321, "##ulate": 9869, "##rice": 17599, "##zawa": 19708, "##vine": 20534, "1604": 28754, "59": 5354, "elemental": 19529, "[unused7]": 8, "warm": 4010, "##mine": 11233, "##sol": 19454, "\u014b": 1106, "juveniles": 25406, "bids": 20723, "jonny": 26937, "beside": 3875, "##sian": 17043, "bolshevik": 24477, "sonic": 12728, "depend": 12530, "##owing": 14138, "cord": 11601, "styling": 20724, "shepard": 22189, "##gi": 5856, "mechanisms": 10595, "haunting": 20161, "aids": 8387, "enabling": 12067, "##overs": 24302, "sway": 17812, "northernmost": 22037, "attacker": 17346, "classmates": 19846, "fluttering": 25001, "[unused33]": 34, "##tron": 15312, "birch": 16421, "lambert": 12838, "tearing": 13311, "ist": 21541, "gupta": 20512, "##ol": 4747, "##pop": 16340, "subsidy": 28768, "##lay": 8485, "##pore": 26691, "\u00a4": 1070, "squid": 26852, "ashley": 9321, "admission": 9634, "pembroke": 21457, "##ish": 4509, "iowa": 5947, "##rade": 13662, "perished": 23181, "inched": 25330, "decreased": 10548, "commanders": 11437, "diagonal": 19754, "occurring": 10066, "anymore": 4902, "1903": 5778, "prophet": 12168, "0": 1014, "##vel": 15985, "hauling": 23113, "##\u043f": 29746, "##ryl": 23320, "[unused438]": 443, "pride": 6620, "##\u05d1": 29789, "portugal": 5978, "##20": 11387, "heck": 17752, "##onis": 27296, "mae": 11530, "consensus": 10465, "##\u056b": 29772, "pietro": 15541, "helene": 20149, "##uming": 24270, "structure": 3252, "surpassed": 15602, "mccoy": 16075, "1909": 5556, "judd": 20128, "ontario": 4561, "\u3061": 1662, "alien": 7344, "prospects": 16746, "designate": 24414, "electric": 3751, "regime": 6939, "shattering": 21797, "234": 22018, "colon": 16844, "##shah": 25611, "allies": 6956, "##ly": 2135, "194": 19955, "##cano": 23803, "##achal": 24409, "670": 25535, "ached": 15043, "##linger": 23101, "sponsored": 6485, "rollins": 23502, "##\u2282": 30137, "trans": 9099, "mortals": 23844, "##nae": 17452, "plume": 26888, "##inho": 29344, "vase": 18781, "##\u0e01": 29945, "ferries": 20157, "##erry": 19826, "fission": 27521, "jared": 8334, "##rick": 11285, "tatum": 25913, "[unused225]": 230, "railroads": 16197, "##dridge": 21482, "our": 2256, "wife": 2564, "thereafter": 6920, "stylized": 19551, "sheen": 20682, "indus": 27746, "valley": 3028, "\u2081": 1548, "environment": 4044, "##pis": 18136, "noah": 7240, "insult": 15301, "##\u2228": 30130, "##eves": 23047, "combine": 11506, "glamorgan": 23861, "arrogance": 24416, "admiration": 17005, "##imated": 20592, "##rize": 25709, "[unused820]": 825, "fabrics": 25123, "monique": 26194, "delaney": 22101, "menacing": 24060, "##\u4f1a": 30289, "\u00a5": 1071, "mother": 2388, "mo": 9587, "##ama": 8067, "##\u5916": 30335, "mad": 5506, "thornton": 14630, "jacqueline": 17551, "##gga": 23033, "muddy": 15405, "recreational": 10517, "jammed": 21601, "tattooed": 26464, "levi": 11902, "##ten": 6528, "badly": 6649, "##psy": 18075, "archdiocese": 12658, "nightfall": 28018, "trainers": 21992, "##jima": 19417, "##sam": 21559, "verity": 22178, "[unused108]": 113, "[unused583]": 588, "porch": 7424, "\u5b89": 1820, "indie": 10271, "[unused187]": 192, "reprinted": 13603, "##usa": 10383, "simone": 14072, "cultural": 3451, "##75": 23352, "benefactor": 27398, "spent": 2985, "\u0576": 1231, "505": 28952, "fledgling": 25954, "southland": 29121, "select": 7276, "dressed": 5102, "tehsil": 20751, "pigment": 28815, "ate": 8823, "##dp": 18927, "##wall": 9628, "johnny": 5206, "crooked": 15274, "spartan": 20670, "renal": 25125, "aqua": 28319, "\u3093": 1691, "##aint": 22325, "##oked": 23461, "##cer": 17119, "enriched": 25202, "pursuits": 23719, "recess": 28290, "sql": 29296, "rainy": 16373, "xml": 20950, "cigar": 19135, "wolf": 4702, "assessed": 14155, "evaluate": 16157, "marx": 13518, "usable": 24013, "reservoirs": 22535, "footballers": 27784, "richard": 2957, "turks": 12896, "##per": 4842, "brushed": 7765, "sponsors": 13162, "compton": 18592, "parma": 19177, "##ao": 7113, "##\u98df": 30504, "euro": 9944, "##nas": 11649, "wichita": 18614, "oceanic": 18955, "warmly": 22775, "##am": 3286, "##fu": 11263, "2008": 2263, "francesco": 11400, "##nk": 8950, "contacts": 10402, "dukes": 16606, "##\u661f": 30392, "om": 18168, "7": 1021, "sous": 27411, "empress": 10248, "recalls": 17722, "##name": 18442, "room": 2282, "precautions": 29361, "##lich": 18337, "##ture": 11244, "ultimatum": 29227, "##tell": 23567, "undertaking": 18457, "abbot": 11428, "satisfactory": 23045, "##ses": 8583, "##ore": 5686, "jd": 26219, "##sville": 9337, "alaska": 7397, "buchanan": 14349, "slashed": 23587, "must": 2442, "plains": 8575, "pilots": 8221, "75th": 25092, "lonely": 9479, "hourly": 21462, "dil": 29454, "uk": 2866, "improves": 24840, "harness": 17445, "dan": 4907, "distracted": 11116, "tran": 25283, "terrible": 6659, "fatal": 10611, "clutch": 15357, "grover": 25242, "raja": 10164, "gabled": 26182, "##yo": 7677, "demeanor": 21745, "smallest": 10479, "233": 22115, "advancement": 12607, "proprietary": 16350, "finances": 16156, "invitational": 20129, "committees": 9528, "daytime": 12217, "iced": 28248, "alain": 15654, "pilgrim": 21214, "denies": 23439, "##zek": 24506, "##nai": 26416, "##\u208a": 30086, "##pose": 20688, "session": 5219, "##lane": 20644, "126": 14010, "canceled": 13261, "pow": 23776, "institution": 5145, "##hell": 18223, "##uating": 24133, "grave": 6542, "standing": 3061, "quarterback": 9074, "possessing": 18840, "##bos": 15853, "mosquito": 22529, "architect": 4944, "##\u6b4c": 30412, "lowering": 13845, "sighed": 5489, "inventory": 12612, "entertained": 21474, "pointe": 26119, "7th": 5504, "##pl": 24759, "\u2666": 1626, "diagnosis": 11616, "dealt": 9411, "concussion": 23159, "took": 2165, "bassist": 9858, "inauguration": 17331, "tia": 27339, "##americana": 27026, "creditors": 23112, "nonetheless": 9690, "##umi": 12717, "hamid": 24811, "fabio": 25616, "\u0915": 1315, "stabilized": 27697, "vest": 17447, "aquarium": 18257, "likened": 28834, "mutiny": 19306, "##\u05d8": 29795, "griffiths": 21960, "compensated": 29258, "meritorious": 22053, "constituents": 24355, "sue": 9790, "waistband": 27553, "producer": 3135, "sharply": 9249, "finance": 5446, "weekly": 4882, "ronin": 29249, "spa": 12403, "##relli": 22948, "brave": 9191, "looted": 27775, "shrines": 22562, "objections": 17304, "adjutant": 20690, "antigen": 28873, "paz": 18183, "warden": 13745, "collectors": 14256, "gain": 5114, "##iya": 8717, "##skie": 23955, "##words": 22104, "##ecin": 28191, "##med": 7583, "presidency": 8798, "bothered": 11250, "##gged": 15567, "noses": 27518, "quincy": 16141, "##uppe": 29547, "##kowski": 15449, "cosmetics": 25381, "badges": 23433, "\u0561": 1219, "invitation": 8468, "seemed": 2790, "kurdish": 15553, "cab": 9298, "##skaya": 23070, "\u093e": 1340, "##sari": 22740, "120": 6036, "darting": 24567, "##pts": 22798, "loco": 28046, "crystals": 14438, "zagreb": 12974, "timely": 23259, "[unused724]": 729, "\u305d": 1660, "bobbie": 27731, "domestically": 27143, "assembly": 3320, "mort": 22294, "allegro": 25319, "[unused174]": 179, "\u3064": 1664, "stumble": 21811, "sexuality": 13798, "python": 18750, "attache": 29489, "dissatisfaction": 28237, "sweetness": 23210, "casper": 24602, "##rling": 22036, "##anal": 27953, "a1": 17350, "francaise": 18427, "1983": 3172, "forgive": 9641, "[unused791]": 796, "davenport": 16273, "attachment": 14449, "\u539f": 1787, "##systems": 29390, "herbert": 7253, "fountain": 9545, "precursor": 14988, "##tial": 20925, "urbana": 27929, "mvp": 12041, "homework": 19453, "effective": 4621, "damaging": 15011, "162": 17832, "##aneous": 17191, "fulfillment": 29362, "emilio": 18644, "command": 3094, "attained": 12754, "\u30d2": 1719, "rapidly": 5901, "\u30b9": 1707, "silence": 4223, "lurking": 24261, "joo": 28576, "mca": 22432, "##rr": 12171, "aligned": 13115, "representatives": 4505, "seismic": 22630, "sped": 16887, "endure": 18094, "kildare": 24275, "cinematography": 16434, "overlook": 27590, "##\u0cbe": 29938, "opus": 16895, "helpful": 14044, "\u209b": 1570, "riff": 24808, "drafts": 28967, "##yst": 27268, "adjective": 24931, "astonishment": 23819, "supportive": 16408, "muscles": 6650, "\u02b3": 1142, "senior": 3026, "energies": 19320, "##lidae": 21595, "nailed": 26304, "rippled": 26862, "booker": 16674, "petersburg": 8062, "privateer": 26790, "transitional": 17459, "\u0997": 1355, "182": 17691, "fitting": 11414, "spots": 7516, "reprint": 25364, "[unused473]": 478, "halls": 9873, "batteries": 10274, "sash": 24511, "##ri": 3089, "[unused674]": 679, "##zee": 23940, "104": 9645, "##ingen": 15542, "mated": 28795, "[unused16]": 17, "navajo": 22440, "jong": 18528, "distributing": 20083, "baldwin": 10970, "bench": 6847, "impatience": 28011, "1645": 26081, "sasha": 14673, "##no": 3630, "exclaimed": 12713, "flaws": 21407, "outfielder": 21033, "16": 2385, "##wyn": 11761, "hay": 10974, "containing": 4820, "owen": 7291, "selector": 27000, "##32": 16703, "pearson": 12874, "quantum": 8559, "watched": 3427, "##cock": 13959, "[unused759]": 764, "csi": 22174, "diva": 25992, "[unused280]": 285, "##\u0b95": 29918, "##gonal": 20028, "became": 2150, "judge": 3648, "supplement": 12448, "dollar": 7922, "wills": 17234, "##jana": 18803, "gundam": 26152, "featuring": 3794, "excluded": 12421, "##cule": 21225, "denise": 15339, "mollusk": 13269, "reflected": 7686, "braves": 13980, "serbs": 16757, "[unused763]": 768, "telecom": 18126, "unnatural": 21242, "jamestown": 27435, "speculative": 23250, "compartment": 15273, "treatise": 15326, "internationals": 27340, "throbbed": 27714, "disk": 9785, "ensure": 5676, "##eed": 13089, "1692": 28622, "kansas": 5111, "taiwan": 6629, "cannot": 3685, "drunk": 7144, "\u25aa": 1618, "excited": 7568, "spine": 8560, "technician": 16661, "compliment": 19394, "\u201c": 1523, "cockpit": 13828, "gaining": 8550, "lodging": 26859, "glancing": 10167, "multicultural": 27135, "census": 2883, "hilton": 15481, "enjoys": 15646, "hurriedly": 23878, "##mbs": 29232, "wounds": 8710, "shifts": 12363, "##ep": 13699, "enfield": 25821, "ro": 20996, "mitch": 11857, "##400": 29537, "install": 16500, "uzbekistan": 17065, "\u0909": 1313, "##ango": 23422, "djs": 23837, "\u0251": 1110, "complementary": 21053, "bass": 3321, "romance": 7472, "##ication": 21261, "cords": 24551, "insulin": 22597, "emmanuel": 14459, "rhyme": 20622, "gasoline": 13753, "routed": 19578, "bologna": 14102, "ghz": 29066, "knox": 11994, "357": 26231, "aj": 19128, "rooney": 24246, "advisory": 7319, "leyte": 27214, "[unused113]": 118, "\u0575": 1230, "[unused13]": 14, "##finger": 20349, "blasting": 26239, "drawn": 4567, "moors": 24812, "hollis": 27477, "bs": 18667, "##\u99ac": 30506, "invasion": 5274, "lands": 4915, "representations": 15066, "travis": 10001, "cupped": 13740, "interiors": 20769, "disagreements": 23145, "almond": 26011, "engagements": 20583, "igor": 14661, "enthusiasm": 12024, "##ndi": 16089, "tucson": 17478, "drastic": 23956, "##gnon": 26977, "##\u0935": 29871, "liam": 8230, "pr": 10975, "exams": 13869, "remade": 26943, "ferns": 25715, "adorable": 23677, "derby": 7350, "nielsen": 13188, "steals": 15539, "dive": 11529, "butt": 10007, "fiber": 11917, "sparks": 12300, "georgia": 4108, "##ters": 7747, "widow": 7794, "[unused821]": 826, "lanka": 7252, "##\u0642": 29834, "[unused700]": 705, "essays": 8927, "rick": 6174, "baths": 19692, "hutton": 20408, "viscount": 12182, "##\u7f8e": 30461, "deaf": 12419, "superiors": 22983, "are": 2024, "scene": 3496, "animals": 4176, "cerebral": 18439, "pastry": 27060, "livingstone": 27656, "backward": 8848, "wonderful": 6919, "titled": 4159, "1936": 4266, "barrage": 19359, "##nbc": 28957, "dissemination": 28170, "splits": 19584, "1540": 27536, "rd": 16428, "principles": 6481, "dex": 20647, "caucasian": 23368, "parameters": 11709, "\u0e40": 1423, "chart": 3673, "weaken": 23021, "skipper": 23249, "conscience": 13454, "branch": 3589, "elisa": 29490, "1652": 28853, "##cot": 24310, "bridges": 7346, "##\u062e": 29821, "##worth": 5172, "backseat": 19978, "got": 2288, "##hill": 7100, "many": 2116, "mandate": 11405, "increasing": 4852, "peter": 2848, "assertion": 23617, "[unused77]": 78, "\u6d77": 1902, "##\u00dfe": 17499, "die": 3280, "election": 2602, "courtship": 28592, "##\u0921": 29857, "##side": 7363, "insect": 14211, "relevant": 7882, "displays": 8834, "##ical": 7476, "connect": 7532, "##hwa": 18663, "sling": 27076, "halt": 9190, "specialist": 8325, "aberdeen": 12080, "##rak": 16555, "bled": 23919, "##\u211d": 30107, "lawyer": 5160, "romero": 18290, "##\u05d4": 29128, "detector": 19034, "##yd": 25688, "##kato": 26020, "heidi": 21372, "deck": 5877, "u": 1057, "elton": 19127, "mn": 24098, "1868": 7582, "borders": 6645, "sensory": 16792, "nell": 20970, "rites": 17105, "pursuing": 11828, "##\u045a": 29763, "sob": 17540, "storylines": 22628, "##iro": 9711, "hymn": 14825, "##brate": 22008, "observes": 24451, "instruments": 5693, "genealogical": 29606, "religions": 11822, "sneak": 13583, "warp": 24136, "ratios": 21879, "##one": 5643, "##ignment": 24838, "solicitor": 15468, "\u03bb": 1165, "roberts": 7031, "witty": 25591, "##boot": 27927, "##mist": 23738, "##marine": 21966, "\u6cbb": 1900, "hiatus": 14221, "\u207b": 1545, "obey": 15470, "howie": 28211, "shiny": 12538, "fossils": 11954, "bandits": 19088, "laughed": 4191, "sherlock": 20052, "[unused82]": 83, "incident": 5043, "georg": 12062, "##adan": 26335, "##sonic": 18585, "brasil": 21133, "tempest": 22553, "bartlett": 20081, "##uk": 6968, "##uli": 15859, "rhine": 10950, "jelly": 20919, "approaches": 8107, "##zione": 20574, "##\u8857": 30472, "bungalow": 27563, "straits": 18849, "monsoon": 19183, "funded": 6787, "rpm": 11575, "tugging": 17100, "sudden": 5573, "burt": 18611, "##tation": 12516, "granada": 16553, "000": 2199, "fade": 12985, "flutter": 23638, "glider": 18788, "paramilitary": 22258, "accompany": 12673, "destroyers": 13242, "##\u0940": 29878, "##iente": 25099, "1710": 23841, "carter": 5708, "###": 29614, "kunst": 28145, "scheduling": 19940, "##hampton": 21946, "##ign": 23773, "emery": 24294, "detrimental": 29172, "tons": 6197, "##tin": 7629, "cadence": 23620, "brow": 8306, "runaway": 19050, "scarcely": 20071, "kazakh": 25907, "flu": 19857, "insane": 9577, "finn": 9303, "mw": 12464, "##real": 22852, "tensions": 13136, "##igan": 10762, "##cl": 20464, "##illo": 10486, "als": 25520, "hatch": 11300, "##oto": 11439, "##while": 19927, "grit": 24842, "crawford": 10554, "\u00f8": 1100, "advanced": 3935, "carvings": 22838, "##rst": 12096, "##aby": 21275, "##hardt": 13778, "spirited": 24462, "\u7701": 1920, "tucked": 9332, "1881": 7005, "##\u094b": 29879, "stored": 8250, "walled": 17692, "##tist": 16774, "##jack": 17364, "duly": 25073, "\u897f": 1947, "adjusted": 10426, "barrio": 25676, "##cana": 28621, "para": 11498, "##yev": 17240, "skyscraper": 24581, "##nts": 7666, "audible": 19525, "ufo": 24321, "anthologies": 25675, "##wright": 26460, "cancers": 25409, "[unused881]": 886, "emmett": 25685, "ancient": 3418, "similar": 2714, "dimitri": 15953, "substitutes": 29200, "rehab": 24497, "weren": 4694, "catching": 9105, "paralympics": 15600, "gabon": 23129, "orchestra": 4032, "algerian": 16953, "place": 2173, "blah": 27984, "enjoy": 5959, "scope": 9531, "gottfried": 26142, "developing": 4975, "arresting": 28427, "modern": 2715, "edition": 3179, "rocking": 14934, "##ogenic": 24278, "stressed": 13233, "##bies": 20536, "assistants": 16838, "ambushed": 22168, "hussein": 16543, "##log": 21197, "\u00e6": 1097, "##tem": 18532, "##itive": 13043, "##dai": 21351, "##iman": 18505, "##lifting": 26644, "rm": 28549, "joy": 6569, "emails": 22028, "barack": 13857, "stunt": 15412, "spying": 22624, "1659": 28288, "traditionally": 6964, "erika": 24900, "##bbling": 15343, "reproduce": 21376, "generalized": 18960, "recited": 24843, "wartime": 12498, "gregory": 7296, "##cology": 19824, "\u30df": 1724, "extracts": 27059, "realize": 5382, "element": 5783, "89": 6486, "prepare": 7374, "devoid": 22808, "flushed": 12953, "geek": 29294, "knit": 22404, "eager": 9461, "stream": 5460, "uefa": 6663, "##ag": 8490, "black": 2304, "sea": 2712, "vintage": 13528, "constantin": 27991, "\u516b": 1771, "ottomans": 17774, "\u826f": 1938, "halifax": 10475, "lawson": 14577, "takeover": 15336, "1917": 4585, "##cast": 10526, "choral": 14564, "charleston": 10907, "##nu": 11231, "cyclic": 23750, "md": 9108, "##ura": 4648, "reorganisation": 24934, "##meyer": 24344, "agriculture": 5237, "kilometre": 13214, "cadillac": 20425, "cross": 2892, "unique": 4310, "certified": 7378, "chapter": 3127, "chords": 18495, "##tery": 20902, "boroughs": 21413, "##chet": 20318, "mocked": 24195, "scattered": 7932, "106": 10114, "##minate": 19269, "contentious": 29308, "1869": 7845, "##missive": 27876, "##very": 27900, "mild": 10256, "\u0631": 1280, "dead": 2757, "flame": 8457, "##heard": 26362, "##olin": 18861, "warriors": 6424, "zodiac": 28501, "##\u304b": 30177, "por": 18499, "##\u30fc": 30265, "harp": 14601, "##train": 23654, "45th": 24634, "happen": 4148, "brigade": 4250, "##zone": 15975, "relate": 14396, "continually": 14678, "##k": 2243, "fury": 8111, "##jected": 24455, "##\u20b9": 30104, "minors": 18464, "bois": 19651, "91": 6205, "##flower": 14156, "slim": 11754, "insert": 19274, "crashed": 8007, "ella": 11713, "##43": 23777, "innings": 7202, "relaxed": 8363, "mortimer": 17416, "chevalier": 22019, "ts": 24529, "aidan": 12643, "regain": 12452, "[unused346]": 351, "encounter": 8087, "##jit": 18902, "1998": 2687, "##fl": 10258, "institut": 17126, "lies": 3658, "bellamy": 25544, "nonlinear": 27400, "eternal": 10721, "##gny": 19393, "pursued": 9505, "ligament": 25641, "[unused64]": 65, "\u8449": 1943, "apprenticeship": 20448, "blouse": 18149, "slated": 18517, "either": 2593, "ngc": 27645, "voluntary": 10758, "possibly": 4298, "amusing": 19142, "##\u03bb": 29727, "climbs": 18881, "frontiers": 28750, "nationalities": 24904, "eighty": 12021, "snatched": 14177, "##xy": 18037, "robotic": 20478, "israelis": 28363, "surprisingly": 10889, "escapes": 12976, "genesis": 11046, "infrared": 14611, "sinks": 23462, "expects": 24273, "stress": 6911, "chapels": 24130, "authentication": 27280, "elevation": 6678, "shouted": 6626, "transparency": 16987, "penguins": 18134, "1679": 27924, "##ides": 8621, "penetrated": 21653, "cores": 25562, "grand": 2882, "raleigh": 15842, "incentive": 20438, "attendees": 19973, "honneur": 28197, "##hers": 22328, "townspeople": 27938, "[unused336]": 341, "cart": 11122, "[unused778]": 783, "ev": 23408, "1744": 25846, "observers": 14009, "reprised": 22598, "revenues": 12594, "fisted": 28273, "tragic": 13800, "seamen": 28671, "ministers": 7767, "ibn": 7839, "nicholas": 6141, "techno": 21416, "recruit": 13024, "wave": 4400, "##\u0431": 29740, "##ira": 7895, "\u9673": 1972, "grocery": 13025, "##otic": 20214, "local": 2334, "##\u1109": 29997, "postmaster": 20707, "ceasefire": 26277, "single": 2309, "[unused793]": 798, "ongoing": 7552, "hug": 8549, "donors": 17843, "bayer": 26367, "vicki": 25424, "racers": 25791, "vampires": 6144, "\u10d2": 1440, "scripts": 14546, "sedan": 15134, "garner": 18661, "object": 4874, "senators": 10153, "1826": 11931, "hail": 16889, "visited": 4716, "townsville": 27492, "boogie": 21495, "##64": 21084, "##buch": 25987, "[unused402]": 407, "holes": 8198, "[unused244]": 249, "populated": 10357, "[unused769]": 774, "##\u1d49": 30035, "##koff": 26126, "##ital": 18400, "magistrate": 14351, "##brand": 23544, "ultimately": 4821, "tertiary": 13553, "##\u03bf\u03c5": 26789, "\u0578": 1232, "rivers": 5485, "sought": 4912, "##growth": 26982, "relaxing": 19613, "cruises": 23986, "lionel": 14377, "knots": 9439, "##link": 13767, "pan": 6090, "meteorological": 20557, "gwen": 11697, "248": 24568, "equipped": 6055, "##kell": 18690, "blacksmith": 20987, "joey": 9558, "##meric": 25531, "mythological": 21637, "placement": 11073, "practically": 8134, "not": 2025, "witness": 7409, "africa": 3088, "where": 2073, "2006": 2294, "constituent": 13794, "reapers": 27733, "llc": 11775, "respects": 17475, "coasts": 20266, "introducing": 10449, "survived": 5175, "ud": 20904, "replacements": 23936, "##idia": 29342, "madness": 12013, "\u00b2": 1082, "clawed": 22544, "darker": 9904, "mythical": 19336, "goddess": 7804, "courtney": 14139, "nave": 12847, "matilda": 17981, "##coming": 18935, "wound": 6357, "seat": 2835, "rug": 20452, "seasoned": 28223, "bundle": 14012, "inspector": 7742, "##lation": 13490, "funeral": 6715, "strange": 4326, "crete": 19111, "##mata": 21022, "rower": 21984, "controversial": 6801, "\u09b6": 1374, "resolve": 10663, "coke": 14492, "militia": 8396, "##rug": 26549, "heroes": 7348, "1880": 6756, "nordic": 13649, "##gible": 18507, "sapphire": 21965, "bulbs": 25548, "ae": 29347, "wai": 23701, "licensed": 7000, "mined": 21846, "19th": 3708, "\u66f2": 1870, "distinguish": 10782, "spices": 21729, "##ho": 6806, "hydro": 18479, "deny": 9772, "booking": 21725, "aging": 12520, "brushes": 22569, "1400": 20652, "access": 3229, "bitch": 7743, "eats": 20323, "soldiers": 3548, "stale": 26729, "depicts": 11230, "knock": 7324, "##uso": 26658, "cult": 8754, "fox": 4419, "##a1": 27717, "##oms": 22225, "mali": 16007, "clip": 12528, "marital": 23143, "celtics": 23279, "sermon": 18408, "##\u6238": 30383, "marking": 10060, "191": 19871, "stripping": 23987, "failed": 3478, "kendall": 14509, "\u09a4": 1362, "salvador": 10582, "##lana": 16695, "1894": 6539, "ann": 5754, "marius": 20032, "horseback": 19926, "toilets": 21674, "cause": 3426, "etat": 17997, "##nova": 13455, "monsieur": 21380, "##oid": 9314, "instructions": 8128, "bhp": 22245, "##\u2097": 30095, "legislation": 6094, "##ulates": 18969, "##yde": 18124, "basalt": 26343, "sacrifice": 8688, "relic": 24933, "##yne": 9654, "bk": 23923, "claudia": 13479, "helens": 24074, "motioned": 13054, "##\u308c": 30214, "edges": 7926, "jump": 5376, "protestant": 8330, "campuses": 13696, "##eak": 25508, "\u30b3": 1704, "\u30c4": 1712, "gingerly": 26961, "[unused178]": 183, "##\u02b8": 29710, "renewed": 9100, "insisted": 7278, "shortlisted": 21353, "[unused718]": 723, "flight": 3462, "warship": 21905, "actors": 5889, "and": 1998, "hbo": 14633, "\u53e4": 1789, "b": 1038, "supper": 15264, "uneven": 17837, "##osity": 25949, "wandering": 13071, "##hya": 17915, "activity": 4023, "##ffer": 12494, "##ures": 14900, "eastward": 17318, "control": 2491, "commonly": 4141, "##bag": 16078, "thump": 21324, "##riated": 25475, "stay": 2994, "soap": 7815, "adjust": 14171, "##breaker": 21204, "tires": 13310, "andes": 18096, "inherently": 26096, "vapor": 20064, "litter": 19070, "prologue": 18877, "umar": 27981, "cinnamon": 21229, "##loaded": 17468, "libyan": 19232, "tuna": 24799, "grammar": 8035, "bertie": 20743, "borrowing": 23733, "ceded": 19705, "reprise": 16851, "defiant": 27836, "vocalist": 8032, "\u2075": 1539, "##oge": 23884, "vidhan": 28590, "somalia": 14717, "##ths": 26830, "1721": 27689, "1900s": 16430, "610": 19827, "##tify": 27351, "thankful": 18836, "investigators": 14766, "screwed": 14180, "\u0448": 1203, "giants": 7230, "guthrie": 19952, "bare": 6436, "traditional": 3151, "storing": 23977, "mis": 28616, "inventions": 21644, "\u0dbb": 1405, "##apa": 22068, "##nio": 27678, "rang": 8369, "cd": 3729, "whites": 12461, "##16": 16048, "[unused145]": 150, "resign": 12897, "##urus": 20089, "pope": 4831, "sleeps": 25126, "65": 3515, "muscle": 6740, "dreamed": 13830, "telephone": 7026, "packet": 14771, "proud": 7098, "##lake": 14530, "ernie": 14637, "##ange": 22043, "##hiff": 25798, "character": 2839, "1955": 3982, "gestapo": 26446, "##ntal": 15758, "harrison": 6676, "##rion": 14772, "mused": 22335, "clouds": 8044, "viewing": 10523, "considerable": 6196, "\u2096": 1565, "originates": 16896, "mlb": 10901, "##ginal": 24965, "invite": 13260, "succeed": 9510, "jersey": 3933, "abby": 9460, "##lved": 26832, "explorers": 19264, "glands": 23340, "##c": 2278, "##uh": 27225, "greg": 6754, "##urized": 28405, "sirens": 20675, "licenses": 15943, "##jee": 16963, "freaks": 29526, "crab": 18081, "animal": 4111, "achievement": 6344, "flicker": 17909, "monograph": 24039, "launcher": 22742, "bahia": 22474, "melissa": 9606, "[unused372]": 377, "cages": 27157, "##ib": 12322, "pouring": 13053, "foundation": 3192, "##lein": 19856, "##wani": 29092, "coat": 5435, "[unused296]": 301, "find": 2424, "stable": 6540, "jam": 9389, "availability": 11343, "inclined": 13050, "##qa": 19062, "outsider": 21002, "\u10e2": 1453, "patent": 7353, "yuki": 24924, "athletics": 6482, "##\u5dde": 30362, "9": 1023, "spans": 14798, "leave": 2681, "stench": 21555, "bankers": 25375, "charted": 12568, "##\u5b80": 30344, "auditioned": 23008, "lakes": 6597, "sprayed": 25401, "platforms": 7248, "soyuz": 29412, "[unused814]": 819, "quinlan": 28451, "practiced": 9051, "\u30ec": 1734, "patrick": 4754, "##bic": 13592, "tyrone": 18770, "ingrid": 22093, "rocked": 14215, "##ricting": 28827, "alumni": 9441, "##dler": 21222, "research": 2470, "biceps": 27947, "##zes": 11254, "176": 18561, "addition": 2804, "attested": 18470, "##ini": 5498, "simulations": 24710, "damian": 19507, "realized": 3651, "freshmen": 26612, "pakistani": 9889, "diploma": 9827, "##bat": 14479, "offenders": 19591, "legislator": 22964, "funk": 11962, "##\u0454": 29759, "helsinki": 12331, "blackpool": 17444, "theoretically": 22634, "##ovic": 9142, "66": 5764, "proposals": 10340, "[unused247]": 252, "tee": 17170, "accomplishments": 17571, "##udeau": 27627, "##rmi": 28550, "level": 2504, "microscope": 24635, "##open": 26915, "arrogant": 15818, "preventing": 10723, "courses": 5352, "[unused128]": 133, "##tch": 10649, "distributed": 5500, "glowing": 10156, "1623": 29056, "basis": 3978, "##tsa": 27110, "andhra": 14065, "startled": 9696, "\u6a4b": 1885, "##avio": 28471, "patted": 11930, "interesting": 5875, "afrikaans": 28673, "executed": 6472, "bernardo": 21175, "kam": 27829, "audit": 15727, "been": 2042, "nerves": 10627, "frame": 4853, "paramount": 11734, "##nsed": 27730, "mentoring": 29192, "wilhelm": 9070, "##kow": 24144, "acids": 12737, "##layer": 24314, "##space": 23058, "##ndra": 17670, "##ezer": 25733, "restarted": 25606, "fluffy": 27036, "##\u0639": 29830, "caucasus": 16512, "interrogation": 16871, "[unused273]": 278, "proper": 5372, "stanley": 6156, "composite": 12490, "##55": 24087, "\u09be": 1378, "sales": 4341, "ecumenical": 23540, "55th": 29075, "##vili": 21661, "vt": 28879, "##ter": 3334, "##lage": 20679, "fjord": 26158, "dramatic": 6918, "rouen": 27030, "andover": 29463, "##aks": 29243, "dayton": 14700, "das": 8695, "[unused48]": 49, "\u091a": 1318, "madrid": 6921, "duty": 4611, "shortened": 12641, "##pod": 27633, "settled": 3876, "maggie": 8538, "divorce": 8179, "peeked": 18652, "##owed": 15096, "smallpox": 25765, "##sen": 5054, "categories": 7236, "purple": 6379, "grunt": 20696, "##lene": 11474, "kilograms": 18857, "neared": 20832, "kong": 4290, "violation": 11371, "young": 2402, "peaks": 11373, "riches": 26768, "##nan": 7229, "##rlin": 19403, "\u6f22": 1904, "peculiar": 14099, "\u2092": 1562, "entities": 11422, "privatization": 23966, "402": 28048, "##kken": 24192, "##bin": 8428, "whilst": 5819, "token": 19204, "feast": 9831, "lucy": 7004, "double": 3313, "thorough": 16030, "sweep": 11740, "crawl": 13529, "formulation": 20219, "commissioner": 5849, "##beam": 28302, "doom": 12677, "rejoin": 25261, "harvesting": 21534, "##wad": 26016, "vin": 19354, "[unused102]": 107, "elf": 17163, "##aria": 10980, "independents": 23756, "million": 2454, "novels": 6002, "rendezvous": 20558, "##eau": 10207, "snapped": 5941, "##ulated": 8898, "reviews": 4391, "199": 20713, "marquez": 27320, "rounded": 8352, "scream": 6978, "turn": 2735, "textual": 25304, "gallery": 3916, "##ayan": 25868, "##nad": 25389, "bother": 8572, "gambia": 26728, "##\u5289": 30303, "taller": 12283, "embark": 28866, "suited": 10897, "##wai": 21547, "##deck": 26547, "classic": 4438, "magdalena": 23984, "daytona": 18226, "##ctic": 13306, "##\u5fc4": 30376, "##\u09ad": 29905, "shoots": 11758, "nestled": 22704, "radiating": 23229, "\u098f": 1351, "simply": 3432, "relay": 8846, "hiram": 27410, "delayed": 8394, "expertise": 11532, "[unused712]": 717, "demanding": 9694, "##\u11b8": 30024, "encompasses": 13974, "penitentiary": 29569, "raft": 21298, "sticks": 12668, "rendered": 10155, "interests": 5426, "proponent": 22488, "moved": 2333, "humanity": 8438, "bred": 13680, "##biotic": 26591, "##\u09b7": 29911, "no": 2053, "elbows": 13690, "sac": 17266, "mark": 2928, "helena": 10269, "218": 20741, "\u2261": 1607, "xp": 26726, "bronze": 4421, "readers": 8141, "webb": 10923, "[unused344]": 349, "lumber": 13891, "##vos": 19862, "gravel": 11127, "vancouver": 6930, "[unused427]": 432, "##zie": 14272, "yelled": 7581, "knoxville": 20021, "##lass": 27102, "bala": 21451, "##ound": 28819, "\u03b2": 1156, "fda": 17473, "[unused493]": 498, "convey": 16636, "[unused657]": 662, "exactly": 3599, "simulated": 23599, "distract": 15886, "ounce": 19471, "enhanced": 9412, "attract": 9958, "[unused937]": 942, "lacks": 14087, "em": 7861, "[unused587]": 592, "antony": 16262, "mexico": 3290, "feared": 8615, "##ogan": 21131, "wagons": 14525, "alloy": 17564, "drafting": 21168, "hungry": 7501, "semantic": 21641, "offences": 18421, "intent": 7848, "refusal": 13948, "fixed": 4964, "compatible": 11892, "ru": 21766, "eater": 28496, "hmm": 17012, "discourage": 28085, "confirms": 23283, "##worm": 22769, "toured": 7255, "vamps": 24064, "horizons": 24484, "44th": 26409, "logged": 26618, "##ucher": 22368, "subsequently": 3525, "thinks": 6732, "##58": 27814, "formulas": 25814, "foul": 12487, "overall": 3452, "\u0dbd": 1406, "tropical": 5133, "fortunately": 14599, "puddle": 25081, "molded": 27992, "breakfast": 6350, "##\u1106": 29995, "artemis": 19063, "##ock": 7432, "feature": 3444, "flavor": 14894, "pp": 4903, "crimean": 20516, "##most": 11800, "##\u043c": 29745, "[unused123]": 128, "somewhere": 4873, "##anor": 27869, "##strom": 15687, "allowed": 3039, "histoire": 20088, "capabilities": 9859, "woods": 5249, "patient": 5776, "##ace": 10732, "##jun": 19792, "##\u06ba": 29843, "##gam": 22864, "particularly": 3391, "abbreviated": 12066, "blinking": 15997, "\u0d9a": 1403, "electron": 10496, "##ez": 9351, "gust": 26903, "##jian": 27685, "cited": 6563, "lisbon": 11929, "nazi": 6394, "putin": 22072, "##ek": 5937, "derbyshire": 15207, "cruel": 10311, "albany": 10283, "sid": 15765, "[unused890]": 895, "##\u091a": 29854, "motors": 9693, "located": 2284, "autumn": 7114, "nico": 19332, "cylinder": 7956, "hitchcock": 19625, "chased": 13303, "helm": 16254, "[unused162]": 167, "[unused412]": 417, "springsteen": 26002, "accompanying": 10860, "##genic": 16505, "dyke": 22212, "buzz": 12610, "282": 26267, "communes": 16569, "##uti": 21823, "##ence": 10127, "describes": 5577, "##hett": 28499, "dragon": 5202, "metaphor": 19240, "gnome": 25781, "##it": 4183, "##\u533a": 30308, "wives": 10403, "1675": 27194, "baltic": 11275, "allow": 3499, "soaked": 13077, "mirrors": 13536, "folds": 15439, "looting": 29367, "\u116e": 1478, "##pressed": 19811, "informs": 15670, "##aly": 20766, "copper": 6967, "attending": 7052, "receptor": 10769, "rita": 11620, "rom": 17083, "1806": 12518, "tide": 10401, "##fying": 14116, "physiology": 16127, "noticeable": 17725, "##\u898b": 30474, "##ocene": 25793, "##pole": 15049, "tara": 10225, "##mount": 20048, "rounding": 26939, "libya": 12917, "charging": 13003, "\u09b2": 1373, "cassette": 13903, "contain": 5383, "407": 28941, "[unused208]": 213, "competes": 14190, "##walk": 17122, "mammoth": 23714, "markets": 6089, "evenings": 16241, "delegate": 11849, "eye": 3239, "maximum": 4555, "overthrow": 16857, "kenneth": 8856, "##mel": 10199, "missiles": 10815, "##wide": 22517, "\u5730": 1802, "juice": 10869, "cinematographer": 19245, "eric": 4388, "obtaining": 11381, "understand": 3305, "peak": 4672, "##ee": 4402, "##end": 10497, "##fleet": 27657, "restrain": 28467, "glazed": 19724, "tossed": 7463, "sympathy": 11883, "thompson": 5953, "confederate": 8055, "travels": 7930, "spears": 13957, "1916": 4947, "cooper": 6201, "independence": 4336, "horns": 11569, "appointment": 6098, "surreal": 16524, "undertaker": 27568, "paul": 2703, "noble": 7015, "rearview": 28726, "massive": 5294, "knocked": 6573, "slovenian": 16583, "##mps": 25370, "lifetime": 6480, "##vu": 19722, "resumed": 7943, "parkway": 12602, "rory": 14285, "impulse": 14982, "corrections": 20983, "lizards": 23898, "baba": 14208, "accompanied": 5642, "##iq": 18515, "pakistan": 4501, "##\u738b": 30435, "sync": 26351, "wait": 3524, "equal": 5020, "publicly": 7271, "forbes": 10822, "markings": 13967, "innovative": 9525, "games": 2399, "nomadic": 21702, "gaps": 16680, "166": 18610, "arias": 25905, "lark": 23404, "juliette": 24696, "bribery": 27748, "maybe": 2672, "altar": 9216, "bend": 8815, "##cup": 15569, "singular": 13048, "460": 17267, "##atics": 17592, "bobo": 27418, "freelance": 15919, "##\u3084": 30208, "\u2044": 1535, "bankruptcy": 10528, "##sey": 7952, "\u4e3b": 1747, "zoo": 9201, "hoffman": 15107, "##erence": 20935, "scotia": 9676, "generic": 12391, "slain": 19668, "ranged": 15844, "clary": 13145, "weekday": 16904, "breasts": 12682, "fries": 22201, "thrash": 27042, "everett": 15160, "landfall": 21042, "portraits": 9668, "tongues": 19677, "##\u026a": 29685, "crawley": 28854, "##\u65b0": 30388, "ottoman": 6188, "floppy": 28491, "patients": 5022, "ban": 7221, "rutgers": 18607, "wiring": 27930, "facilities": 4128, "##thest": 20515, "madison": 7063, "tidal": 15065, "grip": 6218, "##~": 29643, "[unused325]": 330, "##board": 6277, "howe": 13358, "itf": 27682, "##kam": 27052, "pauline": 15595, "[unused311]": 316, "clockwise": 22839, "##rgo": 18581, "hess": 23484, "kind": 2785, "##laus": 28128, "heap": 16721, "##ose": 9232, "[unused315]": 320, "prep": 17463, "dominance": 13811, "##\u4eac": 30281, "##nine": 19105, "grinned": 6973, "willoughby": 24919, "shia": 20474, "##\u5bbf": 30352, "##fahan": 28975, "mental": 5177, "myself": 2870, "geschichte": 28299, "georgetown": 12982, "##wski": 10344, "##\u7cf9": 30460, "evaluating": 23208, "peg": 25039, "##rou": 22494, "ata": 29533, "molecular": 8382, "dummy": 24369, "##rative": 18514, "cream": 6949, "##ko": 3683, "breeze": 9478, "paths": 10425, "linguist": 22978, "[unused74]": 75, "painters": 12499, "compliant": 24577, "[unused90]": 91, "[unused343]": 348, "immigration": 7521, "suspension": 8636, "palms": 9486, "##rao": 25667, "pistons": 24399, "biotechnology": 20353, "bows": 21207, "##roll": 28402, "[unused472]": 477, "surround": 15161, "tongue": 4416, "substrate": 16305, "considered": 2641, "##xed": 19068, "farewell": 13407, "antennas": 26315, "vibe": 21209, "##iom": 18994, "##ocation": 23909, "##rco": 29566, "declining": 13993, "##pani": 26569, "##\u2087": 30083, "drop": 4530, "tribes": 6946, "roderick": 28326, "carp": 29267, "##\u0dba": 29940, "gothic": 7788, "dove": 10855, "weird": 6881, "treason": 14712, "gatherings": 21403, "##by": 3762, "removed": 3718, "reassured": 26350, "operas": 14281, "regulars": 24945, "beasts": 15109, "otter": 22279, "fist": 7345, "fictitious": 23577, "##von": 17789, "healy": 25706, "hell": 3109, "qualification": 8263, "##oh": 11631, "lacked": 10858, "##mill": 19912, "infinite": 10709, "regulatory": 10738, "jen": 15419, "uncanny": 28953, "nancy": 7912, "genoa": 15771, "[unused23]": 24, "##evsky": 27015, "\u5bfa": 1827, "##rigue": 27611, "##uze": 20395, "shrink": 22802, "whimpered": 26184, "act": 2552, "bart": 12075, "##sai": 15816, "##\u00fe": 29670, "panchayat": 20079, "maintains": 9319, "hectares": 9076, "tablet": 13855, "tko": 26537, "neuroscience": 23700, "certain": 3056, "surviving": 6405, "##tology": 23479, "socially": 14286, "duo": 6829, "##lift": 18412, "##eux": 20860, "journals": 9263, "businesses": 5661, "overnight": 11585, "560": 21267, "domed": 29208, "mirza": 18366, "cloth": 8416, "vance": 16672, "collins": 6868, "risking": 26875, "satisfy": 13225, "beaumont": 16210, "blizzard": 21689, "neue": 27713, "tune": 8694, "ton": 10228, "##pping": 14853, "midtown": 27219, "clothed": 24963, "\u2080": 1547, "straining": 21366, "\u09c7": 1381, "palma": 23985, "dairy": 11825, "sidewalks": 28386, "adviser": 11747, "nadia": 14942, "academy": 2914, "##\u0254": 29679, "engines": 5209, "uncle": 4470, "seeming": 16064, "##feld": 8151, "gentle": 7132, "##ciency": 29125, "barns": 25684, "##lais": 28704, "alam": 26234, "tierney": 26198, "growl": 13349, "##eto": 18903, "##vington": 21827, "services": 2578, "entire": 2972, "cutter": 16343, "##lynn": 27610, "kari": 27356, "then": 2059, "assassinated": 16370, "philosophers": 17586, "##moral": 22049, "yiddish": 20112, "incarnation": 15715, "screenings": 25437, "scattering": 17501, "iceland": 10399, "murderous": 25303, "mercenaries": 19331, "##gg": 13871, "revered": 23886, "39th": 22702, "haiti": 12867, "\u6e05": 1903, "[unused916]": 921, "strangely": 13939, "northamptonshire": 21367, "franz": 8965, "past": 2627, "agile": 29003, "julius": 10396, "issues": 3314, "segregated": 24382, "##tive": 6024, "roof": 4412, "[unused371]": 376, "palatinate": 18990, "mc": 11338, "rhea": 24775, "irregularities": 28868, "felipe": 17095, "\u9f8d": 1982, "##uel": 16284, "johansson": 26447, "dipped": 13537, "pacific": 3534, "papua": 13049, "dade": 27647, "arteries": 28915, "##50": 12376, "meadow": 13244, "shatter": 27271, "flagship": 10565, "iain": 24486, "[unused560]": 565, "code": 3642, "satellite": 5871, "dollars": 6363, "imperfect": 29238, "\u00a6": 1072, "richest": 18429, "intimidated": 28028, "##hs": 7898, "antibody": 27781, "facts": 8866, "adolescence": 29101, "legged": 15817, "##\u3078": 30201, "chase": 5252, "sworn": 10741, "##worthy": 13966, "commanding": 7991, "separating": 14443, "symmetrical": 23476, "snyder": 17840, "casts": 23942, "##rag": 29181, "maestro": 25270, "cumbria": 25559, "course": 2607, "1717": 27525, "mostly": 3262, "##uttered": 23128, "heritage": 4348, "crazy": 4689, "samuel": 5212, "mistress": 10414, "bedroom": 5010, "moisture": 14098, "wilkes": 20635, "pudding": 29593, "boulevard": 8459, "hardcover": 20990, "intriguing": 23824, "iihf": 26904, "calabria": 29430, "##sr": 21338, "##sters": 15608, "dad": 3611, "hero": 5394, "newfound": 27608, "\u6c38": 1896, "##rc": 11890, "policy": 3343, "invading": 17657, "[unused933]": 938, "cash": 5356, "peripheral": 15965, "transmission": 6726, "[unused891]": 896, "rhymes": 24468, "courage": 8424, "\u8033": 1937, "seth": 6662, "pinned": 11807, "memphis": 9774, "vietnam": 5148, "peggy": 14911, "scans": 27404, "##\u2044": 30070, "boost": 12992, "reginald": 14435, "battlefield": 11686, "##hire": 20908, "peacefully": 21614, "defend": 6985, "epilogue": 24297, "poppy": 19745, "manipulating": 26242, "##sities": 24279, "##bba": 22414, "##guchi": 16918, "hr": 17850, "banana": 15212, "##kushima": 24917, "sneered": 28098, "##plin": 28296, "talmud": 24380, "##rnier": 28484, "shredded": 29022, "killing": 4288, "dwarves": 29281, "limo": 23338, "##voking": 22776, "rifle": 5883, "banker": 13448, "witchcraft": 21599, "kyiv": 25669, "spencer": 7084, "integrated": 6377, "##op": 7361, "taluk": 23140, "romano": 22070, "plc": 15492, "##\u062a": 29817, "##lmer": 23398, "##ntes": 17340, "alexandre": 16971, "idaho": 9795, "sharpe": 22147, "jeffrey": 10799, "##miento": 28883, "ping": 17852, "##valent": 24879, "posse": 25751, "klein": 12555, "agony": 12812, "##nate": 12556, "typically": 4050, "antonia": 24272, "emi": 12495, "##lord": 19980, "exam": 11360, "baha": 13253, "wagner": 10304, "hears": 14994, "companies": 3316, "##6": 2575, "##ort": 11589, "conway": 14783, "##sche": 22842, "whoever": 9444, "1": 1015, "energy": 2943, "fault": 6346, "dracula": 18500, "rehabilitation": 11252, "##leaf": 19213, "myspace": 24927, "noises": 14950, "google": 8224, "unesco": 12239, "##ological": 10091, "aaa": 13360, "joined": 2587, "119": 13285, "##verse": 16070, "[unused575]": 580, "employee": 7904, "torches": 24711, "accomplishment": 24718, "\u2609": 1622, "hoping": 5327, "joseph": 3312, "recipients": 15991, "##lding": 24573, "coupe": 15130, "walkers": 22559, "alternating": 15122, "idiot": 10041, "##\u5fc3": 30375, "dull": 10634, "throw": 5466, "kate": 5736, "##rred": 20529, "explicitly": 12045, "whale": 13156, "combinations": 14930, "mechanic": 15893, "notoriety": 23215, "echo": 9052, "stir": 16130, "\u3057": 1657, "yeah": 3398, "port": 3417, "dormitory": 21538, "themes": 6991, "##romatic": 23645, "##apes": 29040, "summit": 6465, "theorist": 24241, "[unused394]": 399, "perry": 6890, "[unused882]": 887, "##\u1d47": 30033, "mathews": 23287, "qu": 24209, "\u5f18": 1843, "##do": 3527, "5th": 4833, "byzantine": 8734, "patents": 13979, "allegiance": 14588, "padded": 20633, "gandhi": 12338, "piazza": 22463, "rms": 29311, "##\u0b9f": 29920, "##stra": 20528, "##ita": 6590, "misses": 22182, "accidental": 17128, "bromwich": 27888, "cambridge": 4729, "##ware": 8059, "needed": 2734, "cheng": 15898, "##obe": 20891, "metadata": 27425, "pirate": 11304, "power": 2373, "prohibited": 10890, "##\u02e3": 29718, "##\u6c11": 30418, "##mg": 24798, "bisexual": 22437, "fujian": 29551, "get": 2131, "##iling": 16281, "##\u66f2": 30396, "##dina": 18979, "horribly": 27762, "antonio": 4980, "giggling": 21783, "sex": 3348, "##\u20ac": 30102, "displacement": 13508, "vineyard": 18621, "##uche": 19140, "republicans": 10643, "nhs": 17237, "symptoms": 8030, "efficient": 8114, "278": 24709, "35": 3486, "##vision": 17084, "rhythmic": 14797, "##slow": 26338, "\u056f": 1227, "gods": 5932, "claude": 8149, "akbar": 20730, "pcs": 27019, "burundi": 28836, "choking": 18329, "##\u2018": 30055, "\u72ac": 1908, "sucker": 26476, "turbulent": 22609, "inquiries": 27050, "##ask": 19895, "stabbing": 21690, "reds": 12281, "##rant": 17884, "des": 4078, "domination": 17882, "welcoming": 18066, "shrill": 28349, "casualties": 8664, "hawaii": 7359, "overwhelmed": 13394, "boone": 15033, "sunny": 11559, "##zers": 16750, "1725": 25651, "wanted": 2359, "##ever": 22507, "flung": 14016, "beer": 5404, "[unused592]": 597, "##uck": 12722, "update": 10651, "##marks": 27373, "mic": 23025, "eu": 7327, "##rie": 7373, "computing": 9798, "gathered": 5935, "vinci": 23765, "classes": 4280, "centimetres": 13935, "daughter": 2684, "##lton": 13947, "strike": 4894, "##lto": 23223, "incorporating": 13543, "barrels": 13826, "winked": 14217, "paced": 13823, "judgment": 8689, "reykjavik": 28559, "##\u2083": 11622, "##ren": 7389, "##bilis": 27965, "##etched": 29574, "##ios": 10735, "envoy": 19918, "translit": 28468, "obligations": 14422, "assumptions": 17568, "##etic": 16530, "unstable": 14480, "##dition": 20562, "explores": 15102, "##torm": 20654, "##\u201a": 30057, "##rily": 11272, "stryker": 25429, "posterior": 15219, "burnt": 11060, "widening": 17973, "munitions": 21061, "\u2500": 1615, "electoral": 6092, "goldstein": 25507, "##vinsky": 27704, "visits": 7879, "daphne": 16847, "churning": 26765, "ic": 24582, "expressing": 14026, "##\u308d": 30215, "childhood": 5593, "tuck": 18029, "discussing": 10537, "futile": 24495, "smeared": 25400, "eurovision": 12714, "ter": 28774, "catholic": 3234, "gi": 21025, "##inkles": 28562, "month": 3204, "bomb": 5968, "collaborator": 18843, "trucks": 9322, "predator": 15267, "garcia": 7439, "rattle": 23114, "##iensis": 27806, "referred": 3615, "\u30e5": 1729, "blinded": 20641, "##ians": 7066, "distinguished": 5182, "##slin": 22908, "colbert": 23928, "arson": 24912, "dunn": 14145, "rf": 21792, "##\u0272": 29689, "monday": 6928, "lately": 9906, "swiss": 5364, "namibia": 15408, "bane": 25163, "lei": 26947, "\u060c": 1268, "deepest": 17578, "stemmed": 27674, "clue": 9789, "alias": 14593, "##dry": 21190, "brother": 2567, "game": 2208, "gideon": 12137, "correspond": 17254, "##id": 3593, "frigates": 22833, "menu": 12183, "theta": 23963, "##\u266d": 24102, "goldsmith": 22389, "##\u2208": 30124, "bessie": 29298, "ee": 25212, "##\u028e": 29701, "mimic": 23150, "clayton": 11811, "liaison": 14975, "hee": 18235, "coincidentally": 27542, "strain": 10178, "shots": 7171, "tumbled": 18303, "namesake": 17283, "northbound": 20055, "mischief": 25166, "tequila": 26791, "\u30ca": 1715, "##tner": 18885, "##\u09b2": 29909, "sweaty": 19889, "nearest": 7205, "spies": 16794, "vial": 28475, "##lier": 14355, "xv": 15566, "mauritius": 18004, "aftermath": 10530, "##led": 3709, "geological": 9843, "judges": 6794, "preston": 8475, "campeonato": 17675, "cola": 15270, "suddenly": 3402, "hockey": 3873, "##hara": 11077, "postponed": 14475, "##lag": 17802, "shreveport": 23740, "lifting": 8783, "filming": 7467, "lou": 10223, "goethe": 23173, "higher": 3020, "blues": 5132, "weep": 27874, "##yce": 29297, "prices": 7597, "[unused764]": 769, "comforting": 16334, "ronan": 18633, "##estra": 26199, "admired": 12749, "medial": 23828, "spaniards": 20999, "michelangelo": 27701, "rand": 14566, "charged": 5338, "##\u305f": 30187, "travelers": 15183, "[unused932]": 937, "##pen": 11837, "passive": 13135, "[unused172]": 177, "##ditional": 27064, "##iard": 14619, "benito": 23595, "evie": 26400, "gravely": 28070, "objected": 15959, "location": 3295, "adding": 5815, "euros": 19329, "taluka": 29512, "sold": 2853, "merton": 28169, "villages": 4731, "dealer": 11033, "conception": 13120, "burning": 5255, "broadband": 19595, "##lc": 15472, "vowels": 15260, "wilbur": 26151, "hereditary": 14800, "against": 2114, "screaming": 7491, "protection": 3860, "swimming": 5742, "worthy": 11007, "ratings": 8599, "surgeon": 9431, "exhibiting": 22922, "wider": 7289, "blanket": 8768, "[unused599]": 604, "envy": 21103, "stage": 2754, "clear": 3154, "tx": 19067, "din": 11586, "##14": 16932, "##\u02c8": 29715, "elaborate": 9603, "kicking": 10209, "##lina": 13786, "##rth": 15265, "mail": 5653, "##sford": 17658, "gregg": 18281, "churchyard": 19812, "filmmaker": 12127, "campbell": 6063, "championship": 2528, "teeth": 4091, "stricken": 16654, "excuse": 8016, "##stituting": 21532, "selecting": 17739, "mouths": 15076, "repealed": 21492, "commissioning": 21612, "banded": 25264, "##feng": 24383, "\u0f44": 1427, "remembers": 17749, "ropes": 14607, "[unused868]": 873, "gmina": 7061, "##ril": 15928, "mountains": 4020, "[unused694]": 699, "luzon": 21622, "villagers": 11904, "positioning": 19120, "##turing": 16037, "mixtape": 18713, "ramsay": 19460, "whitman": 21311, "trout": 13452, "##\u0574": 29776, "house": 2160, "volunteers": 7314, "sb": 24829, "##oire": 26250, "airmen": 29437, "##ocks": 25384, "[unused246]": 251, "[unused232]": 237, "\u30e7": 1730, "acquired": 3734, "harm": 7386, "letting": 5599, "stated": 3090, "dahl": 27934, "##rdo": 20683, "uganda": 10031, "##vat": 22879, "##uet": 23361, "ao": 20118, "coptic": 27672, "##\u0153": 29674, "minimum": 6263, "supporters": 6793, "##|": 29641, "##rus": 7946, "wanna": 10587, "##\u27e8": 30155, "owed": 12232, "painfully": 16267, "[unused874]": 879, "1796": 13885, "##s\u0142aw": 23305, "##zzo": 12036, "cliffs": 13333, "mahmoud": 27278, "##achi": 21046, "##\u05e7": 29810, "lex": 17244, "conform": 23758, "id": 8909, "##ield": 12891, "1751": 24440, "hive": 26736, "welfare": 7574, "intel": 13420, "##lite": 22779, "debuts": 26740, "lean": 8155, "dinamo": 22306, "hybrid": 8893, "##gur": 27390, "ripley": 25231, "chuckled": 10252, "synonymous": 22594, "missions": 6416, "lankan": 16159, "bristol": 7067, "parasitic": 26045, "purdue": 19749, "enter": 4607, "##\u09a8": 29902, "bt": 18411, "##\u4e45": 30274, "##ito": 9956, "briefly": 4780, "fruit": 5909, "dominate": 16083, "polling": 17888, "incline": 27461, "##trust": 24669, "##\u0926": 29861, "measure": 5468, "rpg": 22531, "psalms": 26130, "mile": 3542, "[unused609]": 614, "1973": 3381, "##zman": 24340, "specified": 9675, "whore": 17219, "clearance": 14860, "conquered": 11438, "diana": 8805, "fungus": 16622, "maize": 21154, "heraldic": 28867, "##kura": 28260, "##bell": 17327, "##ructured": 26134, "picture": 3861, "leagues": 8121, "capt": 14408, "awe": 15180, "uta": 28981, "264": 21611, "ernest": 8471, "##cu": 10841, "seasonal": 12348, "##orus": 21694, "certainty": 15855, "omnibus": 27284, "pained": 22295, "prohibition": 13574, "##ied": 6340, "##ography": 9888, "pitched": 8219, "huddled": 20258, "carries": 7883, "surveyor": 17169, "elliot": 11759, "confident": 9657, "kilometres": 3717, "thematic": 23539, "craven": 21232, "coding": 16861, "backed": 6153, "1570": 28881, "\u2019": 1521, "##view": 8584, "\u00a7": 1073, "vicious": 13925, "##raz": 20409, "concluded": 5531, "continue": 3613, "weekdays": 19759, "naga": 26539, "fairly": 7199, "rip": 10973, "oxford": 4345, "admiral": 5902, "republic": 3072, "whereupon": 26090, "unavailable": 20165, "variants": 10176, "disqualified": 14209, "##mah": 25687, "##lch": 29358, "##non": 8540, "223": 20802, "##gina": 20876, "phase": 4403, "bandit": 25334, "kilometers": 7338, "ascension": 18071, "diabetes": 14671, "det": 20010, "##time": 7292, "##tv": 9189, "brest": 22451, "weaving": 15360, "99": 5585, "detailing": 17555, "lindsey": 17518, "\u90e8": 1960, "darling": 9548, "bodied": 22549, "[unused279]": 284, "##ha": 3270, "##osition": 19234, "heroism": 27117, "##\u2070": 30071, "##utter": 26878, "##har": 8167, "gillespie": 21067, "tasmanian": 21394, "marguerite": 15334, "darrell": 23158, "sticky": 15875, "##buck": 24204, "treaties": 16013, "undisclosed": 18206, "hosting": 9936, "derrick": 18928, "\u00f7": 1099, "justify": 16114, "sobbing": 20040, "melinda": 23721, "##woods": 25046, "ships": 3719, "##\u5fd7": 30377, "[unused535]": 540, "substance": 9415, "bison": 22285, "blue": 2630, "lids": 26122, "[unused22]": 23, "newfoundland": 11944, "vile": 25047, "draught": 25349, "[unused79]": 80, "workplace": 16165, "tyler": 7482, "stretching": 10917, "maintaining": 8498, "##lights": 15733, "blanche": 18158, "clothing": 5929, "seconds": 3823, "remains": 3464, "fifties": 25942, "darkening": 27862, "grazing": 15400, "[unused969]": 974, "deadline": 15117, "[unused976]": 981, "\u0f63": 1435, "smack": 21526, "##cta": 25572, "##rose": 13278, "##6th": 25994, "450": 10332, "##\u10d9": 29982, "proposal": 6378, "village": 2352, "secular": 10644, "hailed": 16586, "hypothesis": 10744, "[unused663]": 668, "belle": 9852, "##enity": 20693, "tal": 21368, "entity": 9178, "sparse": 20288, "eyre": 26975, "compared": 4102, "bail": 15358, "hague": 14575, "##\u2084": 17004, "gone": 2908, "\u0924": 1323, "conan": 16608, "chen": 8802, "stormy": 24166, "mounted": 5614, "tuba": 29242, "alfa": 22989, "##nst": 23808, "[unused804]": 809, "mary": 2984, "anti": 3424, "##bia": 11607, "dune": 21643, "mcdonnell": 23149, "constitutional": 6543, "degrees": 5445, "lao": 18805, "getting": 2893, "declare": 13520, "connecting": 7176, "\u2077": 1541, "ar": 12098, "customary": 16120, "trailer": 9117, "shark": 11420, "neil": 6606, "1914": 4554, "propagation": 20594, "schizophrenia": 23683, "##inton": 27028, "erection": 13760, "darkness": 4768, "profitable": 15282, "process": 2832, "compulsory": 14770, "trenches": 19874, "##hort": 27794, "liang": 16982, "##\u00b5": 29659, "visitors": 5731, "crying": 6933, "##rro": 18933, "ernesto": 22428, "vaccine": 17404, "\u2076": 1540, "coward": 16592, "aye": 13442, "preached": 21491, "##\u0bb2": 29928, "testimony": 10896, "##ise": 5562, "cid": 28744, "te": 8915, "[unused93]": 94, "substitute": 7681, "hp": 6522, "earnings": 16565, "racer": 14878, "overseen": 22485, "box": 3482, "email": 10373, "onslaught": 28644, "clicking": 22042, "darby": 25844, "##chus": 16194, "madame": 10602, "\u7fa9": 1936, "clay": 5726, "interpreter": 19555, "wrought": 18481, "design": 2640, "16th": 5767, "sloop": 24786, "translate": 17637, "polite": 13205, "revolving": 24135, "fears": 10069, "\u884c": 1945, "become": 2468, "ignition": 17446, "##sation": 26652, "495": 29302, "##lized": 28931, "clarkson": 18648, "societies": 8384, "isle": 8842, "thinking": 3241, "hazy": 26710, "actual": 5025, "universe": 5304, "apartments": 9620, "sexy": 7916, "##\u05de": 29801, "sixties": 22651, "small": 2235, "jasmine": 14032, "specialised": 17009, "1865": 6725, "malibu": 29047, "tonight": 3892, "yank": 23178, "handler": 28213, "qualified": 4591, "antibiotics": 24479, "##roving": 22046, "1724": 26423, "strings": 7817, "simpler": 16325, "manager": 3208, "grasp": 10616, "solemn": 19487, "sister": 2905, "##city": 12972, "begs": 27591, "balfour": 27560, "et": 3802, "dorsey": 27332, "aura": 15240, "federer": 28294, "princes": 12000, "##\u1161": 30006, "##walker": 26965, "narayan": 24331, "mysore": 20761, "superstar": 18795, "##\u110e": 30001, "##nham": 20465, "climates": 24734, "strengthening": 16003, "##rist": 15061, "##bula": 28507, "##cat": 11266, "##\u0142a": 22972, "earls": 27371, "surfaced": 15791, "##rom": 21716, "playground": 14705, "1720": 23535, "##stle": 22516, "lunatic": 26594, "gentleman": 10170, "pagan": 14318, "##pp": 9397, "christine": 10941, "dart": 14957, "holm": 28925, "bury": 11010, "utter": 14395, "spines": 20352, "##lter": 21928, "rooms": 4734, "mats": 22281, "nurses": 11500, "##tically": 25084, "queen": 3035, "6th": 5351, "workings": 24884, "lectures": 8921, "earthquakes": 17932, "firmly": 7933, "opium": 21075, "jingle": 29262, "tunes": 13281, "interference": 11099, "wilmington": 17025, "##pel": 11880, "bicycle": 10165, "reunited": 11653, "trails": 9612, "derry": 17455, "monarch": 11590, "shaping": 20300, "idol": 10282, "eva": 9345, "checking": 9361, "##ingdon": 29138, "letters": 4144, "sonny": 13584, "[unused873]": 878, "electro": 16175, "##onus": 24891, "##eet": 15558, "dirk": 17594, "involvement": 6624, "matthias": 17885, "extraction": 14676, "mat": 13523, "elected": 2700, "nerve": 9113, "##rum": 6824, "shirley": 11280, "accused": 5496, "\u9577": 1967, "ira": 11209, "support": 2490, "hot": 2980, "##hear": 26560, "\u03c5": 1175, "wavelength": 19934, "voyager": 23493, "journalist": 4988, "##hai": 10932, "contracting": 21012, "dangling": 18737, "foo": 29379, "rode": 8469, "buying": 9343, "triumph": 10911, "inverness": 22937, "##\u9ad8": 30507, "alone": 2894, "##rley": 12866, "marlon": 25861, "\u0441": 1196, "reacher": 22970, "riders": 8195, "admiralty": 14179, "eds": 11985, "metals": 11970, "##ule": 9307, "establishes": 21009, "endeavor": 23855, "loosely": 11853, "unbelievable": 23653, "hope": 3246, "matched": 10349, "jim": 3958, "##ty": 3723, "curling": 11599, "institutes": 12769, "az": 17207, "##ifice": 23664, "inn": 7601, "[unused849]": 854, "##zon": 11597, "positively": 13567, "via": 3081, "explore": 8849, "chevrolet": 14724, "made": 2081, "dyer": 23494, "##parts": 26950, "peaking": 13015, "oliveira": 24263, "projectile": 25921, "\u2282": 1610, "problem": 3291, "forerunner": 23993, "admissions": 20247, "lux": 28359, "leicestershire": 20034, "inhabitants": 4864, "granted": 4379, "\u305f": 1661, "researching": 20059, "indefinite": 25617, "fen": 21713, "suspicion": 10928, "glide": 21096, "supermarket": 17006, "racing": 3868, "clench": 26753, "##hema": 28433, "##ride": 15637, "mediated": 19872, "##yn": 6038, "##zh": 27922, "philanthropy": 29291, "\u0917": 1317, "bc": 4647, "##lar": 8017, "geologist": 21334, "1810": 11786, "##ement": 13665, "archives": 8264, "plymouth": 10221, "aquitaine": 24973, "##aya": 12186, "el": 3449, "dried": 9550, "whispers": 11054, "investigates": 28062, "amulet": 25087, "ant": 14405, "hostess": 22566, "gaze": 3657, "terrified": 10215, "repression": 22422, "discuss": 6848, "plastics": 26166, "saxons": 28267, "logistical": 28961, "hydroelectric": 18541, "lucifer": 24184, "##mi": 4328, "socialists": 21633, "neighborhood": 5101, "exhibition": 4538, "pleasantly": 27726, "borg": 28709, "##bley": 29538, "parked": 9083, "patio": 19404, "jury": 6467, "seizing": 24681, "sportsman": 27168, "threatens": 17016, "cautious": 17145, "minor": 3576, "259": 25191, "\u05d4": 1245, "##rri": 18752, "annum": 28907, "##art": 8445, "\u044d": 1208, "submissions": 27842, "##\u4e5f": 30276, "##loading": 18570, "ideal": 7812, "weakened": 11855, "charms": 24044, "capitalism": 16498, "glint": 25263, "merry": 12831, "needy": 23927, "\u548c": 1796, "mil": 23689, "##\u5408": 30318, "##cam": 28727, "persisted": 19035, "index": 5950, "michaels": 17784, "insufficient": 13990, "propellers": 23405, "sabres": 26969, "##\u4ebb": 30283, "forbid": 27206, "##\u6211": 30381, "prussian": 10734, "diego": 5277, "abandoned": 4704, "pigeons": 27567, "##lp": 14277, "##ist": 2923, "tilting": 21788, "them": 2068, "realities": 22213, "brandenburg": 16426, "alcoholism": 25519, "channel": 3149, "##eron": 26534, "talks": 7566, "merlin": 15993, "\u09a1": 1360, "translation": 5449, "questioning": 11242, "willow": 11940, "cylinders": 18729, "##ient": 11638, "differently": 11543, "##uram": 27618, "vaughn": 18220, "fated": 27442, "##\u0937": 29873, "less": 2625, "reliability": 15258, "##ifolia": 29244, "##lta": 24458, "\u062f": 1278, "ricardo": 13559, "zulu": 27359, "##\u2ea9": 30158, "mcbride": 18958, "soviet": 3354, "gallons": 18501, "cowan": 25752, "%": 1003, "cents": 16653, "neighbor": 11429, "##zzi": 13793, "evolutionary": 12761, "grasped": 15517, "249": 23628, "dumont": 25830, "1900": 5141, "balanced": 12042, "1828": 11517, "answers": 6998, "slips": 17433, "taxes": 7773, "tabitha": 21581, "[unused498]": 503, "##\u05d6": 29793, "##sk": 6711, "christianity": 7988, "byrne": 14928, "claimed": 3555, "norte": 19931, "barely": 4510, "scooped": 20804, "cuisine": 12846, "played": 2209, "persecution": 14522, "tenderly": 26596, "symphony": 6189, "##tu": 8525, "questioned": 8781, "##bus": 8286, "##elman": 23830, "##sden": 27903, "sculptures": 10801, "veterans": 8244, "vic": 10967, "trent": 7990, "##ife": 29323, "atlanta": 5865, "##tions": 9285, "##fen": 18940, "##\u1173": 30017, "##m": 2213, "montevideo": 22460, "redding": 26687, "motel": 14901, "constraint": 27142, "madagascar": 11934, "strongest": 10473, "domesday": 22310, "elsie": 24603, "knighted": 19572, "jennifer": 7673, "used": 2109, "pocket": 4979, "trademark": 11749, "entertainment": 4024, "wanda": 20848, "rfc": 14645, "rhodesia": 20340, "[unused242]": 247, "fired": 5045, "roller": 11220, "tug": 12888, "jerome": 11120, "year": 2095, "loosen": 29476, "trunks": 20509, "##ressed": 16119, "laid": 4201, "willie": 9893, "successes": 14152, "leach": 24520, "vedic": 25824, "expo": 16258, "secretly": 10082, "quit": 8046, "full": 2440, "innocence": 12660, "resembles": 12950, "parcels": 28998, "ft": 3027, "resemble": 13014, "fk": 14352, "275": 17528, "synth": 24203, "writers": 4898, "##\u116a": 30012, "\u5b9a": 1822, "properties": 5144, "##mage": 26860, "##\u592b": 30339, "pittsburgh": 6278, "motion": 4367, "intentional": 21249, "dilemma": 21883, "hellenic": 23122, "biking": 28899, "##\u4eee": 30287, "##unce": 17457, "\u03c2": 1172, "impose": 17607, "unbearable": 24257, "messengers": 28938, "worn": 6247, "[unused818]": 823, "performances": 4616, "monster": 6071, "1926": 4881, "thirteenth": 14725, "humidity": 18213, "td": 14595, "richter": 20105, "##nostic": 28199, "maxi": 21510, "stampede": 29375, "spaces": 7258, "back": 2067, "292": 25797, "premature": 21371, "##bb": 10322, "bluff": 14441, "campaigning": 18524, "##enia": 19825, "inconsistent": 20316, "moral": 7191, "idf": 24011, "[unused99]": 104, "##nc": 12273, "paddy": 16063, "\u03be": 1168, "coincide": 19680, "booming": 24716, "spoken": 5287, "relieved": 7653, "reveals": 7657, "in": 1999, "dozens": 9877, "[unused146]": 151, "open": 2330, "cave": 5430, "nasa": 9274, "analyst": 12941, "frigate": 15437, "brawl": 23244, "sizable": 25908, "sven": 21313, "rainbow": 10098, "lucky": 5341, "clan": 6338, "parts": 3033, "##town": 4665, "wrestler": 10706, "accordingly": 11914, "##\u5343": 30310, "compartments": 27998, "veracruz": 23741, "illuminating": 27816, "fourier": 26899, "dealing": 7149, "rowe": 20538, "##lho": 28061, "midi": 22265, "airline": 8582, "aleksandr": 24020, "wash": 9378, "\u30b7": 1706, "shirts": 11344, "norma": 20692, "figuring": 23218, "lear": 26511, "##\u30af": 30228, "demetrius": 28367, "\u6238": 1857, "optional": 11887, "stool": 14708, "[unused501]": 506, "discrimination": 9147, "contradictory": 27894, "builders": 16472, "replay": 15712, "wagon": 9540, "startup": 22752, "showcasing": 27696, "##u": 2226, "[unused11]": 12, "jenny": 8437, "##ilia": 27861, "\u2194": 1587, "kenny": 8888, "\u6c0f": 1891, "educational": 4547, "jj": 29017, "historical": 3439, "glucose": 18423, "goat": 13555, "##nton": 15104, "##rte": 19731, "lansing": 22304, "[unused979]": 984, "armies": 8749, "talon": 19048, "penalties": 12408, "780": 28601, "beverley": 29057, "##tite": 23096, "playstation": 9160, "[unused568]": 573, "beam": 7504, "dare": 8108, "stalker": 23883, "cheer": 15138, "pants": 6471, "pia": 24624, "1952": 3999, "##qi": 14702, "nearby": 3518, "##\u2080": 17110, "##lion": 18964, "lambda": 23375, "auburn": 12704, "demonic": 23170, "derivatives": 16942, "creaked": 28068, "discipline": 9009, "cb": 17324, "##bbled": 12820, "personality": 6180, "refurbishment": 24478, "##ichi": 11319, "overboard": 27089, "shitty": 28543, "1866": 7647, "##rrard": 29599, "val": 11748, "artifacts": 10471, "comedian": 9971, "1842": 10008, "##\u2014": 30052, "repeat": 9377, "croatian": 7963, "quiet": 4251, "##cz": 27966, "iucn": 20333, "tightly": 7371, "bonus": 6781, "touchdowns": 10183, "##nology": 21020, "##wd": 21724, "corsica": 27047, "##mise": 28732, "##\u10dc": 29985, "##ert": 8743, "cornered": 25878, "years": 2086, "belt": 5583, "seoul": 10884, "toro": 23790, "drone": 18465, "\u00ae": 1079, "fact": 2755, "fires": 8769, "glowed": 16497, "##tze": 23102, "analytics": 25095, "mustang": 18851, "sat": 2938, "gunshot": 22077, "theories": 8106, "adorned": 19189, "finds": 4858, "townland": 23635, "cartel": 21680, "2003": 2494, "kapoor": 17129, "##ole": 9890, "marco": 8879, "grade": 3694, "lagos": 16738, "suarez": 22551, "immature": 26838, "gaston": 18572, "interstate": 7553, "styx": 21856, "lehman": 28444, "localized": 22574, "##iba": 18410, "melodic": 17187, "unlimited": 14668, "plays": 3248, "munro": 20923, "freaked": 22783, "kiel": 20963, "zeke": 18270, "atomic": 9593, "richie": 14411, "truman": 15237, "wooden": 4799, "politics": 4331, "instability": 18549, "##far": 14971, "##ythe": 26688, "gathers": 29438, "putting": 5128, "##ulously": 21227, "bunny": 16291, "phillies": 15711, "ely": 20779, "3000": 11910, "decrees": 28966, "cale": 21854, "##vances": 26711, "riga": 17557, "##otho": 29288, "calder": 19347, "kathryn": 20484, "painter": 5276, "##gon": 7446, "twitch": 19435, "86": 6564, "genevieve": 20245, "quarters": 7728, "rumble": 15658, "cooling": 11520, "bihar": 16178, "dupont": 22848, "##sm": 6491, "court": 2457, "##can": 9336, "cutler": 24975, "absorbed": 9063, "##ern": 11795, "slipped": 5707, "##ajan": 28869, "km\u00b2": 3186, "##rnik": 26437, "wonders": 16278, "keel": 19602, "canned": 27141, "accepting": 10564, "trading": 6202, "##joy": 24793, "february": 2337, "porto": 13809, "##ug": 15916, "##lan": 5802, "[unused420]": 425, "involving": 5994, "ussr": 10331, "babylon": 17690, "roll": 4897, "streamed": 18498, "fourth": 2959, "ios": 16380, "projection": 13996, "este": 28517, "enlisted": 9417, "travellers": 19284, "retreating": 17512, "51": 4868, "iranian": 7726, "1825": 11384, "ky": 18712, "##\u05d2": 29790, "territorial": 7894, "##fting": 26169, "occasion": 6686, "##\u05df": 29802, "brace": 17180, "flirting": 20661, "appropriate": 6413, "##des": 6155, "healer": 19783, "tips": 10247, "twenty20": 22240, "##\u203f": 30069, "playoffs": 7555, "1716": 28204, "elevators": 19406, "bundles": 26825, "##gger": 13327, "expanse": 22944, "blu": 14154, "friedrich": 8896, "\u3075": 1674, "79": 6535, "##ailing": 29544, "caused": 3303, "crew": 3626, "##erine": 24226, "##print": 16550, "\u03c6": 1176, "##aru": 15728, "powerless": 25192, "principality": 18018, "various": 2536, "stays": 12237, "##34": 22022, "slender": 10944, "nicholson": 16955, "robotics": 21331, "##\u6b66": 30415, "bullshit": 14636, "battled": 19787, "citing": 8951, "amelia": 11556, "bits": 9017, "vivian": 13801, "mai": 14736, "##zin": 17168, "nosed": 29338, "##therapy": 20900, "facility": 4322, "torre": 22047, "26th": 14935, "phillip": 10852, "cheltenham": 18763, "tyres": 24656, "camps": 7958, "ventral": 23420, "screwing": 29082, "1969": 3440, "roche": 20162, "charge": 3715, "vibration": 17880, "jp": 16545, "units": 3197, "suitcase": 15940, "##llan": 19036, "benefited": 19727, "blending": 23293, "petit": 17268, "##eil": 24359, "johan": 13093, "hollywood": 5365, "wiping": 14612, "fiery": 15443, "##rar": 19848, "lanterns": 26078, "significant": 3278, "##y": 2100, "willing": 5627, "\u2227": 1602, "experienced": 5281, "clustered": 25221, "dna": 6064, "netherlands": 4549, "hong": 4291, "##\u09a3": 29897, "lit": 5507, "peking": 27057, "hurricane": 7064, "pike": 12694, "77": 6255, "bb": 22861, "1837": 9713, "penny": 10647, "fanny": 17813, "sediments": 20476, "war": 2162, "[unused562]": 567, "work": 2147, "topic": 8476, "\u099a": 1356, "coaches": 7850, "##llon": 22179, "legions": 23269, "simon": 4079, "soccer": 4715, "den": 7939, "translating": 22969, "katharine": 25739, "##\u11ab": 30021, "##\u571f": 30327, "##beck": 12750, "##\u092c": 29865, "disgust": 12721, "[unused250]": 255, "enthusiast": 29550, "furnishings": 23127, "sensation": 8742, "##\u5742": 30329, "traded": 7007, "##11": 14526, "##\u3093": 30217, "##tag": 15900, "practice": 3218, "##tz": 5753, "locks": 11223, "sir": 2909, "feeling": 3110, "prefer": 9544, "##gative": 26792, "losers": 23160, "##yam": 14852, "bob": 3960, "##\u2212": 22543, "crossroads": 16760, "##ions": 8496, "jessica": 8201, "started": 2318, "curiously": 16484, "1765": 20797, "fine": 2986, "raise": 5333, "amazingly": 29350, "zeppelin": 22116, "jealousy": 14225, "##dit": 23194, "inca": 27523, "confederacy": 18179, "legislature": 6372, "##cular": 15431, "thumb": 7639, "tasks": 8518, "[unused330]": 335, "metro": 6005, "kramer": 16322, "\u0e07": 1410, "vuelta": 21441, "larry": 6554, "gerais": 29220, "habitats": 10746, "\u6797": 1881, "##\\": 29635, "##\u2ebc": 30159, "1753": 23810, "depends": 9041, "##ety": 27405, "preservation": 8347, "[unused864]": 869, "helping": 5094, "kinda": 17704, "pathway": 12732, "islamabad": 26905, "##nut": 24072, "##pie": 14756, "documentation": 12653, "dot": 11089, "bulky": 27446, "priesthood": 17911, "1891": 6607, "meaningful": 15902, "waits": 18074, "distressed": 24305, "genuinely": 15958, "least": 2560, "##cke": 19869, "ah": 6289, "however": 2174, "boer": 19945, "##nsk": 25564, "climbed": 6589, "dhabi": 23153, "egyptian": 6811, "peers": 12746, "lazarus": 23623, "nicely": 19957, "preach": 25250, "##\u6a39": 30410, "jumps": 14523, "mb": 16914, "##cellular": 16882, "\u79be": 1927, "dropping": 7510, "bunch": 9129, "secretariat": 15128, "sorting": 22210, "attacked": 4457, "[unused775]": 780, "chichester": 23406, "upward": 10745, "wits": 25433, "##aar": 26526, "adults": 6001, "overshadowed": 28604, "measurements": 11702, "hopped": 17230, "writer": 3213, "##ares": 17933, "constitute": 12346, "card": 4003, "precisely": 10785, "sq": 5490, "pedestrians": 24946, "heroine": 18869, "shielded": 25474, "console": 10122, "registering": 25719, "[unused594]": 599, "##por": 17822, "##rane": 18053, "beethoven": 15461, "[unused523]": 528, "coca": 16787, "mage": 17454, "handkerchief": 23975, "[unused245]": 250, "exeter": 12869, "corbin": 24003, "barbarian": 25075, "tibet": 13319, "[unused397]": 402, "http": 8299, "prescription": 20422, "##chester": 25322, "recommended": 6749, "geese": 28519, "candle": 13541, "commented": 7034, "murdering": 21054, "##\u1d2c": 30026, "\u56fd": 1799, "backdrop": 18876, "##ries": 5134, "taipei": 14004, "blessings": 24618, "##emann": 17545, "flanks": 23547, "##\u300c": 30167, "##ratic": 23671, "##merie": 28677, "modeling": 11643, "ville": 20184, "##eber": 22669, "##tering": 17989, "encouraged": 6628, "pigeon": 16516, "supplies": 6067, "guns": 4409, "amor": 16095, "francis": 4557, "##urne": 21737, "vast": 6565, "declaring": 13752, "wexford": 23121, "hamlet": 8429, "thing": 2518, "portico": 23104, "regretted": 18991, "[unused239]": 244, "soothing": 16684, "motorway": 13119, "pending": 14223, "beg": 11693, "chu": 14684, "rosemary": 18040, "140": 8574, "demolished": 7002, "395": 24673, "cheekbones": 27181, "doctrines": 23252, "##like": 10359, "add": 5587, "consequence": 9509, "bethel": 19375, "interception": 17385, "lamps": 14186, "separation": 8745, "unified": 10562, "flap": 20916, "##cis": 22987, "larkin": 25570, "##\u1166": 30009, "oblast": 10379, "peruvian": 15432, "statehood": 28000, "exhibitions": 8596, "\u21d2": 1591, "to": 2000, "potion": 26722, "highness": 17114, "invariant": 23915, "newt": 25597, "sky": 3712, "\u5343": 1784, "schubert": 24645, "##washed": 27283, "dung": 29328, "trained": 4738, "131": 14677, "terminology": 18444, "##uin": 20023, "1644": 23477, "renaming": 24944, "blind": 6397, "fined": 16981, "##\u10e3": 29990, "bruce": 5503, "filmmakers": 16587, "##sing": 7741, "##orn": 9691, "bray": 19743, "newman": 10625, "souza": 26598, "chimed": 27460, "traveling": 7118, "apron": 20376, "skater": 18815, "grins": 20237, "disused": 26958, "[unused386]": 391, "quay": 21048, "sally": 8836, "milestone": 19199, "fee": 7408, "apocalypse": 16976, "##mt": 20492, "noodles": 27130, "subsistence": 27667, "louisa": 15731, "wrong": 3308, "suspects": 13172, "dorothy": 9984, "##rch": 11140, "southport": 27494, "##mony": 22847, "phone": 3042, "suicide": 5920, "volunteered": 14382, "backgrounds": 15406, "weighing": 15243, "pup": 26781, "loomed": 24358, "##mable": 24088, "breuning": 18177, "curved": 9203, "trump": 8398, "decidedly": 27873, "starbucks": 29500, "\u221e": 1601, "tones": 12623, "blinding": 19709, "occupational": 16928, "##bright": 26614, "[unused717]": 722, "derived": 5173, "dong": 11947, "##\u30e9": 30257, "impossible": 5263, "outcomes": 13105, "##rain": 21166, "snuggled": 26867, "islamist": 27256, "##\u0584": 29786, "chips": 11772, "pharmaceutical": 13859, "##sham": 21010, "\uff09": 1988, "david": 2585, "condemned": 10033, "tyne": 17742, "uncles": 27328, "domestic": 4968, "will": 2097, "winchester": 12841, "offerings": 14927, "[unused761]": 766, "pressing": 7827, "forceful": 28552, "admitting": 17927, "michel": 8709, "facilitating": 25505, "sloane": 17558, "wasp": 19411, "dodgers": 13391, "miniature": 12973, "##vill": 26548, "ruining": 27853, "aren": 4995, "largest": 2922, "cycle": 5402, "impatient": 17380, "##dington": 21504, "fisher": 8731, "head": 2132, "roofed": 26080, "vogel": 27063, "montpellier": 28153, "alpine": 10348, "genera": 11416, "disney": 6373, "natural": 3019, "monument": 6104, "masks": 15806, "distinctly": 19517, "##atable": 27892, "puerto": 5984, "proceeded": 8979, "##rent": 22787, "##vis": 11365, "mcqueen": 29265, "medallion": 22541, "##enary": 24553, "##anies": 28064, "managerial": 24465, "1830s": 20400, "##bl": 16558, "183": 18677, "merit": 7857, "instructed": 10290, "vibrated": 27801, "none": 3904, "aiming": 13659, "duchy": 11068, "uniform": 6375, "needles": 17044, "rink": 18416, "league": 2223, "seed": 6534, "viet": 19710, "##gua": 19696, "thigh": 10120, "restrained": 19868, "displeasure": 28606, "households": 3911, "1831": 10937, "magnitude": 10194, "asylum": 11386, "\u7ae0": 1932, "leaders": 4177, "##eh": 11106, "##zic": 27586, "notes": 3964, "premio": 23031, "uncertainty": 12503, "initiating": 26616, "##off": 7245, "luminous": 25567, "auditory": 28042, "margarita": 24570, "liner": 11197, "merging": 16468, "1641": 25702, "55": 4583, "##swell": 19228, "famous": 3297, "ying": 20879, "shooter": 13108, "##oper": 25918, "scheduled": 5115, "assessment": 7667, "classics": 10002, "[unused538]": 543, "##kai": 11151, "pathetic": 17203, "##write": 26373, "drumming": 22980, "auschwitz": 24363, "1768": 19793, "##\u2016": 30054, "buried": 3950, "[unused877]": 882, "\u09a5": 1363, "search": 3945, "thomson": 11161, "penetrate": 19136, "aaron": 7158, "monitored": 17785, "basin": 6403, "load": 7170, "perth": 9300, "nichols": 15746, "signals": 7755, "weaponry": 22711, "chief": 2708, "##sburg": 9695, "335": 24426, "markham": 26197, "[unused379]": 384, "chemistry": 6370, "fran": 23151, "paisley": 23321, "manhattan": 7128, "fusiliers": 27207, "owned": 3079, "promote": 5326, "cry": 5390, "canvas": 10683, "contraction": 21963, "hawkins": 13835, "inferno": 21848, "##\u0142": 18818, "\u0bc7": 1398, "##icate": 24695, "##56": 26976, "briggs": 15487, "sebastian": 6417, "2": 1016, "##gs": 5620, "christchurch": 15880, "tanker": 20135, "prominence": 12144, "permission": 6656, "##ceae": 9071, "punishments": 29115, "##\u2071": 30072, "corruption": 7897, "greeting": 14806, "@": 1030, "flavors": 26389, "295": 21679, "isn": 3475, "carrot": 25659, "boutique": 24611, "paws": 24392, "junta": 22450, "marginal": 14785, "##personal": 28823, "novelty": 21160, "[unused215]": 220, "copa": 10613, "##gas": 12617, "##atus": 15590, "obituary": 20815, "vo": 29536, "rift": 16931, "ceiling": 5894, "mastered": 15682, "sibling": 22941, "##\u026b": 29686, "ui": 21318, "##child": 19339, "furious": 9943, "karen": 8129, "takes": 3138, "##\u0636": 29827, "##fixed": 23901, "stiffened": 16090, "##thorpe": 22398, "caliphate": 28034, "napkin": 20619, "##dget": 24291, "dickson": 22076, "##ading": 23782, "hunted": 14682, "yeshiva": 22142, "seventeenth": 15425, "[unused29]": 30, "brenda": 15507, "requested": 7303, "oboe": 22523, "kruger": 27823, "malvern": 28082, "oversees": 22558, "au": 8740, "assists": 8456, "biscuits": 27529, "base": 2918, "##morphic": 18078, "petitioned": 22527, "hymns": 17777, "steamed": 21734, "##tangle": 23395, "yan": 13619, "falsely": 23123, "triple": 6420, "whitney": 9809, "prisoner": 7267, "xiao": 19523, "archival": 22796, "superintendent": 9133, "cops": 10558, "##scope": 26127, "blackwell": 18776, "[unused70]": 71, "buddha": 11903, "attend": 5463, "patterned": 25336, "partition": 13571, "weakly": 17541, "inclusive": 18678, "stealth": 22150, "exiting": 22371, "polar": 11508, "boats": 6242, "dax": 27116, "##nam": 13129, "anyone": 3087, "tunnel": 5234, "##fat": 27753, "anzac": 29224, "wedge": 17632, "deutsche": 11605, "daryl": 22514, "xinjiang": 25904, "zambia": 15633, "radioactive": 17669, "parisian": 24262, "gregorian": 25847, "hires": 28208, "shooting": 5008, "sm": 15488, "\u30cb": 1716, "##mates": 15416, "bwv": 23860, "##ales": 23266, "##dm": 22117, "prosecutor": 12478, "smell": 5437, "ions": 15956, "collaboration": 5792, "[unused952]": 957, "bags": 8641, "\u85e4": 1944, "re": 2128, "1971": 3411, "\u738b": 1909, "\u093f": 1341, "narrowed": 8061, "173": 19410, "##win": 10105, "##\u306c": 30195, "dominant": 7444, "bus": 3902, "##rera": 24068, "posthumously": 12770, "ever": 2412, "isabel": 11648, "##rton": 11715, "##tai": 15444, "##athan": 29246, "saskatoon": 25447, "assemblies": 17720, "ribbon": 10557, "##fp": 22540, "slogan": 14558, "kade": 26159, "##iner": 26455, "wilde": 18575, "neoclassical": 22657, "sonia": 16244, "nervous": 6091, "expect": 5987, "ab": 11113, "chennai": 12249, "haydn": 25595, "justine": 26377, "places": 3182, "arroyo": 23882, "##puri": 24661, "aramaic": 28934, "whispered": 3990, "##bird": 9001, "leaped": 16900, "ejected": 22607, "destiny": 10461, "emerged": 6003, "41st": 24233, "##cing": 6129, "meiji": 23214, "promoted": 3755, "community": 2451, "suzuki": 14278, "harmed": 25596, "obstruction": 27208, "300": 3998, "capitol": 9424, "firstly": 15847, "editing": 9260, "296": 27200, "clinics": 17865, "roth": 12211, "candi": 27467, "up": 2039, "innate": 25605, "##ves": 6961, "discovery": 5456, "totaling": 21798, "eponymous": 15248, "##iaceae": 23357, "frank": 3581, "selective": 13228, "cautiously": 15151, "retain": 9279, "claire": 6249, "\u043b": 1190, "literal": 18204, "darius": 14861, "gr": 24665, "monkey": 10608, "diameter": 6705, "prasad": 17476, "colonies": 8355, "ramon": 12716, "parental": 18643, "stimulus": 19220, "reserved": 9235, "legislatures": 27977, "##is": 2483, "integration": 8346, "escaping": 13002, "hopeful": 17772, "##saka": 29289, "portray": 17279, "elector": 20374, "fe": 10768, "trombone": 13914, "##baum": 14898, "orchid": 15573, "wolverine": 22162, "bethany": 16559, "foliage": 19624, "brisk": 28022, "discussions": 10287, "kitten": 18401, "blackburn": 13934, "[unused258]": 263, "carved": 7844, "archduke": 27463, "##pool": 16869, "intercourse": 23198, "sake": 8739, "owner": 3954, "indians": 6505, "restricting": 26996, "[unused872]": 877, "dartmouth": 16960, "##athi": 25457, "[unused444]": 449, "[unused531]": 536, "##fication": 10803, "bull": 7087, "##lity": 18605, "blackmail": 25044, "fuzzy": 18001, "##\u30a4": 30221, "transcription": 14193, "authorization": 20104, "[unused834]": 839, "palermo": 18705, "promo": 19430, "royalties": 25335, "persians": 27229, "avalanche": 18846, "##giving": 23795, "lew": 24992, "xiv": 15939, "soviets": 15269, "[unused357]": 362, "slung": 20078, "lyrical": 16376, "nasty": 11808, "grille": 26192, "biker": 28988, "thai": 7273, "berg": 15214, "##acion": 21736, "[unused683]": 688, "ostensibly": 23734, "1964": 3546, "hair": 2606, "pull": 4139, "##sons": 23345, "panthers": 12915, "##umber": 29440, "##hue": 20169, "transcribed": 26223, "deed": 15046, "##ulating": 10924, "shy": 11004, "inferior": 14092, "bewildered": 24683, "12th": 5940, "\u044c": 1207, "fi": 10882, "mistakes": 12051, "##creen": 24410, "constant": 5377, "##\u03b2": 29720, "1938": 4260, "jesuit": 13840, "behold": 27541, "locating": 26339, "##\u826f": 30464, "##hma": 22444, "intently": 16170, "##\u0580": 29784, "shade": 8703, "turbines": 17396, "##sman": 11512, "##ppy": 27659, "starred": 5652, "bourgeois": 22846, "metacritic": 14476, "producers": 6443, "accident": 4926, "births": 18250, "wang": 7418, "tuned": 15757, "sabah": 22515, "hodge": 23148, "duplicate": 24473, "r": 1054, "##ico": 11261, "earnest": 17300, "truss": 24224, "engraver": 27771, "mothers": 10756, "##fire": 10273, "saetan": 23515, "fish": 3869, "renovated": 10601, "enigma": 26757, "##eem": 21564, "plastic": 6081, "devon": 7614, "futuristic": 28971, "knows": 4282, "##dorf": 11592, "bid": 7226, "translucent": 22897, "memoirs": 13251, "snails": 13482, "punt": 18975, "dwight": 14304, "homestead": 14473, "forefront": 22870, "gameplay": 11247, "massif": 24875, "[unused191]": 196, "1963": 3699, "hertfordshire": 18889, "##gni": 29076, "fraser": 9443, "eighties": 27690, "[unused434]": 439, "saved": 5552, "##erted": 28728, "measurement": 10903, "gomez": 12791, "newport": 9464, "beings": 9552, "##year": 29100, "sequel": 8297, "##gut": 27920, "\u66f8": 1871, "##oed": 29099, "decisive": 13079, "titus": 18828, "##ople": 27469, "##jn": 22895, "middle": 2690, "[unused525]": 530, "bellevue": 26756, "confusing": 16801, "##tal": 9080, "##boats": 19468, "blanchard": 26870, "##\u091f": 29856, "rebellion": 7417, "clinical": 6612, "##mat": 18900, "owls": 22388, "irregular": 12052, "carly": 18431, "fc": 4429, "hostages": 19323, "1774": 17593, "fray": 25975, "nocturnal": 23789, "##esa": 22447, "dept": 29466, "earn": 7796, "interned": 26345, "dammit": 20878, "boar": 24187, "moscow": 4924, "##\u2026": 30064, "reynolds": 9579, "intention": 6808, "##lham": 25968, "##pi": 8197, "addresses": 11596, "fatalities": 20871, "oxidation": 19577, "[unused361]": 366, "\u209a": 1569, "atari": 18978, "margin": 7785, "vanderbilt": 17066, "##yuan": 17236, "telescopes": 28026, "##krishna": 23017, "jiangsu": 28091, "\u674e": 1877, "##mes": 7834, "mandir": 22700, "olympian": 25977, "jewelry": 11912, "affectionately": 28734, "showers": 23442, "decide": 5630, "nominate": 23388, "##pa": 4502, "skeleton": 13526, "coincided": 18616, "mcconnell": 28514, "nitrogen": 14114, "##pit": 23270, "salt": 5474, "php": 25718, "disputed": 11621, "##gling": 18483, "donetsk": 29151, "circled": 14867, "lexington": 14521, "##aco": 22684, "dog": 3899, "##il": 4014, "cousins": 12334, "[unused54]": 55, "jackets": 17764, "computers": 7588, "##lings": 11227, "yours": 6737, "\u82b1": 1940, "diaries": 18707, "perhaps": 3383, "suffering": 6114, "thank": 4067, "moreno": 17921, "quick": 4248, "##chemical": 15869, "##logies": 21615, "shocking": 16880, "500": 3156, "shaking": 5513, "##ntial": 19909, "evolving": 20607, "##ote": 12184, "balkans": 19733, "armando": 26716, "armoured": 11104, "bachelor": 5065, "desktop": 15363, "usd": 13751, "reinstated": 18671, "scarce": 18782, "crust": 19116, "feb": 13114, "[unused299]": 304, "honolulu": 16598, "##ories": 18909, "unwilling": 15175, "persuade": 13984, "terminate": 20320, "stafford": 15064, "##aid": 14326, "##rich": 13149, "ratified": 17673, "lunged": 17755, "needs": 3791, "\u1d57": 1505, "prompting": 15870, "##bold": 27495, "bond": 5416, "stepmother": 26959, "lim": 18525, "##rd": 4103, "apps": 18726, "identifiable": 27800, "\u0283": 1130, "values": 5300, "jeff": 5076, "rio": 5673, "##ilde": 23891, "suppressed": 13712, "hart": 7530, "johannes": 12470, "galway": 14370, "##chuk": 26516, "undergraduate": 8324, "stocked": 24802, "hounds": 27772, "adherence": 29235, "detonated": 28110, "purge": 24694, "rudd": 25298, "reefs": 21484, "pillars": 13766, "tad": 18819, "savanna": 22323, "skilled": 10571, "##ifier": 18095, "##arium": 17285, "oz": 11472, "statute": 11671, "hana": 26048, "north": 2167, "1890": 6193, "[unused658]": 663, "irvine": 16272, "promises": 10659, "divisional": 14167, "[unused805]": 810, "rune": 23276, "fastest": 7915, "1945": 3386, "zack": 13658, "##rest": 28533, "marijuana": 16204, "lunar": 11926, "credibility": 21553, "added": 2794, "galileo": 21514, "efficiency": 8122, "schools": 2816, "redskins": 17461, "charlton": 17821, "fresno": 20840, "##mite": 23419, "[unused148]": 153, "acknowledging": 21894, "##lese": 24527, "hospitality": 15961, "interrupt": 17938, "gravitational": 19790, "contributions": 5857, "##ian": 2937, "threatened": 5561, "251": 22582, "##zumi": 28114, "pokemon": 20421, "\u2078": 1542, "ubiquitous": 28498, "grimly": 22561, "der": 4315, "##yk": 15922, "ric": 26220, "outs": 21100, "##90": 21057, "salsa": 26509, "concourse": 28571, "typing": 22868, "guests": 6368, "recounted": 22906, "##bina": 21114, "##oshi": 24303, "deputy": 4112, "spiders": 14160, "lyon": 10241, "sg": 22214, "hoc": 21929, "goose": 13020, "solidarity": 14657, "##\u4e3b": 30273, "welded": 29014, "flying": 3909, "##puted": 29462, "sport": 4368, "culminated": 16943, "brightly": 14224, "widen": 21255, "conde": 24707, "extension": 5331, "hugo": 9395, "wi": 15536, "films": 3152, "devoted": 7422, "jon": 6285, "burgess": 17754, "baseman": 18038, "jeopardy": 26604, "[unused39]": 40, "strand": 11226, "liar": 16374, "spaceship": 25516, "##\u6709": 30399, "actor": 3364, "##lle": 6216, "##rricular": 21231, "watch": 3422, "##tase": 18260, "with": 2007, "1921": 4885, "allocated": 11095, "ransom": 16540, "##ographic": 13705, "##lder": 16502, "##ttle": 26328, "##raphic": 20721, "somme": 25158, "##\uff08": 30513, "sara": 7354, "undergone": 17215, "shifting": 9564, "\u30af": 1702, "envisioned": 18035, "hypnotic": 28322, "##rage": 24449, "newscasts": 24482, "##cheng": 21043, "instructor": 9450, "helmets": 22674, "##heim": 8049, "aground": 29406, "##onzo": 29452, "ignorance": 18173, "afforded": 22891, "piss": 18138, "##icing": 23553, "##vey": 12417, "stimulation": 20858, "bolt": 10053, "anaheim": 20835, "taliban": 16597, "mckay": 16225, "##ina": 3981, "desired": 9059, "pink": 5061, "edith": 13257, "bargaining": 21990, "anybody": 10334, "##rked": 19849, "\u4f8d": 1765, "rome": 4199, "weather": 4633, "employ": 12666, "climate": 4785, "##\u3002": 30162, "emotion": 7603, "\u057f": 1236, "[unused664]": 669, "##shire": 7430, "##ago": 23692, "surrey": 9948, "##itated": 15198, "##ono": 17175, "pba": 21563, "neo": 9253, "##cci": 14693, "##tek": 23125, "[unused639]": 644, "hunched": 20498, "[unused400]": 405, "speaks": 8847, "[unused943]": 948, "statutes": 18574, "accessories": 16611, "visually": 17453, "sweet": 4086, "video": 2678, "sacrificed": 20268, "kelley": 19543, "recognize": 6807, "ares": 23631, "[unused252]": 257, "whip": 11473, "##\u30e0": 30251, "##\u3048": 30175, "stirred": 13551, "prime": 3539, "cabin": 6644, "player": 2447, "posture": 16819, "outlet": 13307, "hitler": 8042, "##nger": 11392, "sheltered": 18304, "geoffrey": 11023, "##hog": 25852, "##week": 28075, "##\u09a7": 29901, "##ec": 8586, "severed": 16574, "besieged": 17923, "thriving": 20319, "woodrow": 23954, "walden": 24834, "jogged": 27812, "##\u00d7": 26306, "child": 2775, "##\u21c4": 30117, "free": 2489, "clouded": 26761, "message": 4471, "feat": 8658, "designing": 12697, "maddox": 22730, "##powering": 23948, "norfolk": 7735, "theirs": 17156, "inhaled": 15938, "resentment": 20234, "danny": 6266, "[unused627]": 632, "sucked": 8631, "accommodation": 11366, "hicks": 17221, "\u05be": 1240, "chapters": 9159, "\u09aa": 1367, "piedmont": 18873, "feeding": 8521, "republican": 3951, "##tting": 13027, "emphasis": 7902, "completed": 2949, "bogota": 21240, "french": 2413, "dorm": 19568, "neat": 15708, "visas": 24487, "##ands": 29560, "[unused631]": 636, "describing": 7851, "tsar": 17608, "strengthened": 13949, "oven": 17428, "##cton": 28312, "neighboring": 8581, "raining": 24057, "ign": 16270, "rich": 4138, "##mba": 11201, "repay": 24565, "sensible": 21082, "ul": 17359, "jupiter": 13035, "victorian": 6652, "enterprises": 9926, "##ays": 22916, "aware": 5204, "dom": 14383, "[unused530]": 535, "##ander": 12243, "tbilisi": 22406, "[unused453]": 458, "decommissioned": 14394, "loft": 19459, "ha": 5292, "fantasia": 29203, "horrific": 23512, "consolation": 24831, "storey": 11676, "chronic": 11888, "chemicals": 12141, "mattered": 13836, "influx": 18050, "laden": 14887, "mushrooms": 23827, "appear": 3711, "##out": 5833, "##\u624b": 30384, "san": 2624, "limitations": 12546, "inducted": 8120, "[unused846]": 851, "explaining": 9990, "amara": 28599, "##ree": 9910, "builder": 12508, "number": 2193, "1993": 2857, "hiv": 9820, "vows": 16495, "yin": 18208, "outrage": 19006, "##firm": 27972, "encyclopedia": 12204, "recall": 9131, "sixth": 4369, "books": 2808, "choi": 18151, "premier": 4239, "harvey": 7702, "yoo": 26823, "serbian": 6514, "[unused656]": 661, "instrument": 6602, "penn": 9502, "clenched": 8555, "wessex": 27886, "##nga": 13807, "piercing": 14628, "totally": 6135, "martyrs": 18945, "sealed": 10203, "awards": 2982, "obscured": 23649, "secluded": 27044, "tradition": 4535, "frames": 11048, "##\u03b8": 29725, "ph": 6887, "##ager": 17325, "vfl": 13480, "calmly": 12885, "rolling": 5291, "cradle": 18293, "defected": 26330, "validation": 27354, "##9": 2683, "jurgen": 23171, "barker": 12852, "determination": 9128, "ranging": 7478, "aerial": 9682, "##oon": 7828, "107": 10550, "[unused355]": 360, "alteration": 26014, "yao": 23711, "pregnant": 6875, "romanized": 7651, "france": 2605, "occupations": 23374, "odessa": 19693, "yen": 18371, "standardized": 16367, "compatibility": 21778, "pizza": 10733, "tunisian": 22946, "##ta": 2696, "columbia": 3996, "threat": 5081, "coarse": 20392, "racism": 14398, "verge": 16079, "lore": 19544, "kaladin": 22588, "penal": 18476, "hi": 7632, "1886": 6929, "intend": 13566, "##vic": 7903, "sanjay": 29590, "palmer": 8809, "owl": 13547, "lev": 23310, "501": 16202, "tangled": 14170, "##cycle": 23490, "poor": 3532, "v6": 25275, "slabs": 28761, "prefect": 19402, "ushered": 23815, "staten": 24161, "##\u2502": 30143, "basket": 10810, "willy": 16172, "obligatory": 26471, "##hala": 19531, "##\u03b9\u03b1": 27432, "##uve": 22909, "rake": 26008, "tentacles": 24719, "ceremony": 5103, "intuition": 26406, "heart": 2540, "forcibly": 20951, "isa": 18061, "khalid": 21828, "dough": 23126, "1988": 2997, "[unused651]": 656, "declared": 4161, "staged": 9813, "stupidity": 28072, "aided": 11553, "bedfordshire": 28430, "##ucci": 16835, "khyber": 28416, "##gis": 17701, "clash": 13249, "satire": 18312, "\u76f8": 1919, "scripture": 18919, "##dust": 24220, "javanese": 27344, "2005": 2384, "prevented": 8729, "yale": 7996, "pisa": 25472, "##\u3009": 30164, "anand": 18887, "non": 2512, "turning": 3810, "numerical": 15973, "cornice": 27848, "##saurus": 22244, "operates": 5748, "casinos": 27300, "provided": 3024, "[unused768]": 773, "##onte": 28040, "lu": 11320, "enraged": 18835, "camille": 16675, "televised": 13762, "wildly": 13544, "bermuda": 13525, "[unused767]": 772, "demi": 27668, "354": 27878, "1807": 13206, "arrays": 27448, "elbow": 8999, "priorities": 18402, "reading": 3752, "performed": 2864, "theatres": 13166, "##\uff1f": 30520, "rein": 27788, "physicist": 13702, "modular": 19160, "venue": 6891, "louise": 8227, "recital": 25521, "spielberg": 28740, "bosnia": 9562, "consulted": 17535, "stalls": 19753, "##lova": 24221, "treated": 5845, "addiction": 13449, "acre": 7456, "##rland": 18324, "thrown": 6908, "\u0632": 1281, "stake": 8406, "ib": 21307, "technique": 6028, "##ord": 8551, "evergreen": 16899, "1748": 24445, "fridge": 16716, "##vik": 13309, "suggestion": 10293, "##zoo": 23221, "##ead": 13775, "polled": 26847, "nj": 19193, "\u02c8": 1149, "federico": 20493, "flipping": 18497, "gears": 19456, "instantly": 6880, "bedrooms": 18390, "ordeal": 23304, "##rke": 25074, "[unused640]": 645, "##ssar": 25556, "periodically": 18043, "##hey": 14844, "buses": 7793, "welcome": 6160, "treats": 18452, "##nza": 16786, "destructive": 15615, "mutants": 23892, "peek": 19043, "shown": 3491, "parallels": 18588, "\u0636": 1285, "##zhou": 9791, "thoroughbred": 18359, "mortar": 14335, "gail": 18576, "mustard": 23187, "virtues": 21560, "chaired": 12282, "bra": 11655, "vegas": 7136, "fugitive": 21329, "[unused983]": 988, "napoleonic": 18813, "measured": 7594, "nationwide": 9053, "##osa": 8820, "insists": 16818, "bluegrass": 21286, "cloak": 11965, "cyrillic": 15522, "disgusted": 17733, "putnam": 20230, "eggs": 6763, "##uring": 12228, "6000": 25961, "manuel": 7762, "[unused105]": 110, "initially": 3322, "furniture": 7390, "poison": 9947, "longest": 6493, "suburban": 9282, "asleep": 6680, "showered": 23973, "favorites": 20672, "craftsmen": 25736, "tehran": 13503, "enroll": 25612, "upcoming": 9046, "loading": 10578, "##bury": 4917, "figured": 6618, "##80": 17914, "##pet": 22327, "1839": 10011, "photographer": 8088, "sisters": 5208, "cesar": 14923, "corn": 9781, "appearances": 3922, "tamil": 6008, "arrow": 8612, "rhythm": 6348, "booster": 23715, "criticism": 6256, "wrestling": 4843, "##lateral": 28277, "therapy": 7242, "junk": 18015, "playing": 2652, "alto": 10766, "exclusive": 7262, "oclc": 12258, "coup": 8648, "groves": 21695, "healing": 8907, "fitz": 27706, "mob": 11240, "luckily": 15798, "[unused385]": 390, "recordings": 5633, "april": 2258, "maps": 7341, "song": 2299, "verdi": 20580, "huh": 9616, "165": 13913, "##osaurus": 25767, "shooters": 28310, "cara": 14418, "277": 25578, "\u091c": 1319, "notice": 5060, "##born": 10280, "oscar": 7436, "retrieve": 12850, "\u2070": 1536, "bookstore": 21785, "\u11b7": 1487, "prosecution": 11537, "outdated": 25963, "curate": 27530, "emerge": 12636, "bain": 28477, "flags": 9245, "bam": 25307, "##venting": 26703, "wonder": 4687, "\u3088": 1684, "##istic": 6553, "brackets": 19719, "responsibilities": 10198, "##bay": 15907, "##umble": 26607, "adam": 4205, "tank": 4951, "reform": 5290, "administered": 8564, "bravery": 16534, "unfamiliar": 16261, "sandy": 7525, "essence": 11305, "healthcare": 9871, "bonnet": 24367, "##\u0f54": 29966, "chrysler": 17714, "##anza": 16076, "relax": 9483, "powder": 9898, "##ciful": 26336, "nilsson": 29376, "mon": 12256, "##break": 23890, "wat": 28194, "starving": 18025, "##\u5206": 30301, "encoding": 17181, "dip": 16510, "treacherous": 26648, "##bbs": 17226, "chilly": 24222, "organising": 21317, "patronage": 15694, "287": 23090, "nonstop": 25493, "307": 24559, "obliged": 14723, "taps": 25316, "##mous": 27711, "believer": 24591, "sulfate": 26754, "[unused955]": 960, "\u4e94": 1753, "paperback": 13611, "taft": 19911, "mesopotamia": 25889, "affect": 7461, "sentences": 11746, "prelude": 19508, "##\u306b": 30194, "useless": 11809, "##\u9547": 30492, "##var": 10755, "aviation": 5734, "mouth": 2677, "lobe": 21833, "inflation": 14200, "attendant": 16742, "talking": 3331, "electromagnetic": 17225, "madeira": 27309, "mph": 5601, "whorls": 25637, "coping": 27520, "financially": 13732, "roles": 4395, "prairie": 10996, "heels": 8265, "protagonists": 21989, "reformer": 24767, "magnolia": 24659, "dakota": 7734, "discourse": 15152, "355": 26271, "marseille": 16766, "resemblance": 14062, "##bari": 25990, "[unused290]": 295, "anytime": 15933, "dripping": 14309, "\u53f8": 1791, "##ods": 20620, "tc": 22975, "niagara": 15473, "damaged": 5591, "##\u0986": 29884, "implement": 10408, "germans": 7074, "##\u0930": 29869, "linden": 22066, "overgrown": 26433, "dunbar": 23034, "##\u099c": 29894, "cigarettes": 15001, "munoz": 23685, "##oman": 20778, "tremble": 20627, "yeast": 21957, "smart": 6047, "wc": 15868, "cassandra": 15609, "1970": 3359, "prepared": 4810, "ka": 10556, "cameras": 8629, "tavern": 13090, "ezekiel": 28743, "##vet": 19510, "streamlined": 29445, "gladstone": 21765, "[unused281]": 286, "alternatively": 14084, "collateral": 24172, "22nd": 13816, "pas": 14674, "antioch": 19078, "daggers": 24210, "appropriated": 29223, "workout": 27090, "pulls": 8005, "gestures": 18327, "cookies": 16324, "safety": 3808, "##ntly": 20630, "gesturing": 22317, "staggering": 26233, "seminole": 28909, "manchester": 5087, "transportation": 5193, "##gne": 10177, "fitch": 26062, "interventions": 19388, "2015": 2325, "copy": 6100, "yemen": 13968, "filter": 11307, "mask": 7308, "harassed": 28186, "swapped": 29176, "student": 3076, "[unused833]": 838, "trek": 10313, "interfere": 15115, "prior": 3188, "sick": 5305, "miniseries": 13612, "scoring": 4577, "ito": 23333, "##\u05be": 29787, "\\": 1032, "kevin": 4901, "plainly": 24250, "skinner": 17451, "##onic": 12356, "##\u00ba": 29662, "amnesty": 16154, "jade": 12323, "\u110c": 1464, "gemma": 19073, "##mics": 22924, "any": 2151, "mobile": 4684, "##tila": 26065, "coming": 2746, "sort": 4066, "suites": 19796, "richmond": 6713, "federal": 2976, "graveyard": 16685, "268": 25143, "drugs": 5850, "artery": 16749, "quietly": 5168, "##oned": 17799, "##economic": 23035, "geographic": 9183, "pockets": 10306, "francs": 24313, "stagecoach": 26025, "relies": 16803, "vulcan": 25993, "naacp": 26155, "##arina": 27943, "##rdy": 17460, "nutrient": 26780, "\u0434": 1184, "greens": 15505, "charity": 5952, "buckingham": 17836, "spruce": 19893, "##kel": 11705, "torch": 12723, "##kali": 28613, "cu": 12731, "##zine": 21254, "emerges": 19391, "families": 2945, "plaster": 15673, "griffin": 9258, "##iable": 19210, "clubhouse": 22067, "stupid": 5236, "syrup": 23353, "##bie": 11283, "calculating": 20177, "##\u11a8": 30020, "info": 18558, "dancing": 5613, "adrenaline": 14963, "cabins": 20321, "disadvantaged": 27322, "##\u90fd": 30487, "adrian": 7918, "vanishing": 24866, "pubs": 23598, "orbiting": 26472, "##lovic": 29356, "dinner": 4596, "csa": 27804, "##rsa": 22381, "thong": 27468, "##\u0283": 29696, "##werk": 29548, "fertile": 14946, "ventura": 21151, "chow": 20209, "troubles": 13460, "imperialism": 28087, "administer": 21497, "chromosomes": 26874, "victorious": 13846, "##physics": 15638, "##ility": 15148, "##ret": 13465, "unsuccessfully": 11551, "archaeologists": 19254, "desert": 5532, "newer": 10947, "##iled": 18450, "auxiliary": 9830, "\u5f73": 1845, "santos": 11053, "teaming": 27025, "mini": 7163, "martin": 3235, "parana": 28383, "seaman": 21626, "##arus": 29133, "tis": 22320, "fragmentation": 28424, "transient": 25354, "here": 2182, "petition": 9964, "##tension": 29048, "enemies": 6716, "##neas": 26737, "##oder": 27381, "tread": 29449, "ecclesiastical": 12301, "eventually": 2776, "vanessa": 13226, "##ested": 17944, "##ntino": 25318, "leung": 26037, "ticket": 7281, "##ella": 8411, "\u3086": 1683, "rum": 19379, "receiver": 8393, "pursed": 21954, "exiles": 27127, "finland": 6435, "camp": 3409, "minimize": 18478, "unable": 4039, "##thus": 19877, "infinity": 15579, "shipbuilding": 16802, "neutrality": 21083, "1844": 9730, "ou": 15068, "[unused170]": 175, "245": 21005, "kamen": 22099, "bouquet": 26700, "utmost": 27917, "lower": 2896, "contractors": 16728, "shivers": 28464, "##\u203a": 30068, "kia": 27005, "istanbul": 9960, "reviewer": 12027, "munich": 7469, "##iously": 19426, "brewers": 20007, "izzy": 16699, "kinetic": 20504, "someone": 2619, "goodwin": 19928, "##iculate": 24153, "viewers": 7193, "invaders": 17347, "blankets": 15019, "cass": 16220, "sits": 7719, "extreme": 6034, "crusader": 25237, "wondering": 6603, "##\u116d": 30013, "##oration": 21223, "##\u5f35": 30370, "va": 12436, "britney": 29168, "##iter": 21646, "##talk": 28014, "patrol": 6477, "vortex": 23463, "diocese": 5801, "patna": 29565, "rectangular": 10806, "teddy": 11389, "cone": 13171, "candles": 14006, "quicker": 19059, "july": 2251, "pond": 8644, "comet": 15699, "##mith": 19864, "danielle": 18490, "writings": 7896, "behaviors": 15592, "dorian": 16092, "adds": 9909, "1974": 3326, "minnie": 26188, "[unused708]": 713, "vehicle": 4316, "acoustic": 6490, "worries": 15508, "cooler": 14976, "padma": 23731, "peas": 26072, "johnston": 10773, "##jia": 26541, "canons": 21975, "fails": 11896, "spaghetti": 26666, "groove": 14100, "##ora": 6525, "80s": 16002, "led": 2419, "ol": 19330, "whatever": 3649, "bellowed": 27386, "paper": 3259, "ulster": 11059, "operated": 3498, "\u00b6": 1086, "##version": 27774, "patiently": 19080, "england": 2563, "##ving": 6455, "expeditionary": 15372, "##rden": 18246, "marathi": 18388, "cowboy": 11762, "sentence": 6251, "##\u02e1": 29716, "abolished": 8961, "ras": 20710, "sewage": 19873, "##\u027e": 29692, "##\u305b": 30185, "permits": 14245, "featherweight": 27145, "ind": 27427, "98": 5818, "[unused837]": 842, "kan": 22827, "reflective": 21346, "plunging": 29059, "homicide": 18268, "##eson": 21421, "mutant": 15527, "hd": 10751, "##rna": 12789, "tudor": 15588, "lutheran": 10034, "dfb": 28894, "[unused830]": 835, "##ray": 9447, "finale": 9599, "mcpherson": 24332, "##cave": 27454, "illusions": 24883, "scary": 12459, "##vas": 12044, "operative": 12160, "##`": 29639, "turnbull": 26439, "softened": 16573, "remembered": 4622, "belly": 7579, "noel": 10716, "dancer": 8033, "swim": 9880, "amman": 25703, "barney": 15377, "darlington": 19667, "searing": 25764, "\ufb02": 1985, "estimated": 4358, "##oz": 18153, "##river": 24352, "odin": 26195, "nazis": 13157, "rejoined": 14311, "execute": 15389, "minus": 15718, "##hima": 16369, "##mbe": 18552, "227": 21489, "flights": 7599, "1605": 28202, "kathmandu": 28045, "exhibited": 8176, "[unused875]": 880, "##ppet": 29519, "appointments": 14651, "##ors": 5668, "refrigerator": 18097, "##enham": 23580, "nike": 18368, "wales": 3575, "decorations": 14529, "spraying": 29035, "1948": 3882, "registration": 8819, "cushion": 22936, "evaluated": 16330, "##ishment": 21808, "rudolph": 18466, "##3d": 29097, "remarks": 12629, "skipped": 16791, "unhappy": 12511, "[unused211]": 216, "np": 27937, "secured": 7119, "stainless": 18676, "bush": 5747, "style": 2806, "grouped": 15131, "sexes": 21024, "##lysis": 26394, "[unused229]": 234, "carl": 5529, "##52": 25746, "network": 2897, "elena": 9060, "remarked": 10783, "animator": 25132, "127": 13029, "jang": 23769, "chuckles": 26088, "##bridge": 6374, "cory": 18342, "coinage": 25396, "labeled": 12599, "rooster": 27681, "##kian": 28545, "##\u30b7": 30232, "[unused774]": 779, "afb": 16909, "matter": 3043, "edinburgh": 5928, "convoy": 9549, "passion": 6896, "rubbed": 7503, "maneuvers": 23802, "wharton": 24249, "toppled": 27251, "cones": 23825, "##\u1019": 29973, "octagonal": 22340, "learnt": 20215, "lauded": 26507, "did": 2106, "equally": 8053, "happier": 19366, "1977": 3355, "premium": 12882, "reorganized": 14137, "##icides": 22698, "indictment": 24265, "poorly": 9996, "motives": 17108, "178": 19289, "council": 2473, "356": 27509, "bleak": 21657, "##ivo": 20984, "lung": 11192, "##rogated": 26565, "##trick": 22881, "pumped": 16486, "hyundai": 25983, "ferrer": 28390, "particular": 3327, "shattered": 10909, "##iad": 28665, "nagar": 16395, "\u2205": 1593, "cube": 14291, "flooded": 10361, "plunge": 25912, "##aking": 15495, "2a": 23409, "agreement": 3820, "newcomers": 24159, "smoothing": 27045, "##rts": 21217, "egypt": 5279, "honduras": 14373, "praises": 27128, "[unused619]": 624, "\u0638": 1287, "utopia": 26425, "abdomen": 13878, "queue": 24240, "##\u4eba": 30282, "saturdays": 18860, "late": 2397, "itv": 11858, "##\u09aa": 29903, "##bro": 12618, "arnold": 7779, "shady": 22824, "requiem": 21199, "##ques": 10997, "##\u30db": 30248, "##bbon": 27684, "underworld": 13607, "citizenship": 9068, "slower": 12430, "justice": 3425, "\u2193": 1586, "appetite": 18923, "memorial": 3986, "kidney": 14234, "##zuka": 22968, "sun": 3103, "jakob": 19108, "distinguishing": 20852, "originate": 21754, "fascinating": 17160, "military": 2510, "slowly": 3254, "momma": 23603, "indoors": 24274, "##witz": 15362, "stanton": 15845, "\u2015": 1518, "investigated": 10847, "[unused410]": 415, "tea": 5572, "##ick": 6799, "anger": 4963, "##bill": 24457, "havoc": 22156, "fields": 4249, "##cini": 27085, "dieter": 27976, "anchorage": 21086, "confirm": 12210, "density": 4304, "slides": 14816, "\u09ac": 1368, "##jer": 20009, "counterattack": 27835, "lam": 16983, "zurich": 10204, "##leigh": 13615, "angelina": 23847, "##lla": 4571, "poles": 10567, "module": 11336, "awesome": 12476, "crusaders": 18831, "[unused610]": 615, "co": 2522, "##ghton": 21763, "regrets": 23161, "##vc": 25465, "##vron": 28588, "##ght": 13900, "medallist": 28595, "##rong": 17583, "##rai": 14995, "anthony": 4938, "torn": 7950, "fragment": 15778, "leon": 6506, "elvis": 12280, "mal": 15451, "##zquez": 22938, "hogan": 14851, "packard": 24100, "sequence": 5537, "##gic": 12863, "114": 12457, "##\u30ef": 30262, "necks": 26082, "##ctuated": 25638, "[unused883]": 888, "celebrities": 12330, "refining": 28596, "transport": 3665, "##opus": 24676, "caught": 3236, "zionist": 21379, "##uate": 20598, "technological": 10660, "northampton": 15944, "tanned": 25973, "doors": 4303, "hartman": 26766, "styled": 13650, "1890s": 13678, "##iest": 10458, "##nsis": 11745, "senses": 9456, "territory": 3700, "merchandise": 16359, "calais": 23116, "arthritis": 27641, "reasoned": 24557, "strands": 14119, "gnu": 27004, "operate": 5452, "machines": 6681, "truck": 4744, "instructors": 19922, "\u00fe": 1101, "\u30d8": 1721, "cleveland": 6044, "1843": 10075, "flashed": 8373, "\u51fa": 1774, "internet": 4274, "zone": 4224, "expeditions": 15014, "layla": 19786, "benefits": 6666, "knees": 5042, "bottoms": 24196, "[unused662]": 667, "##\u00b4": 29658, "198": 20003, "guam": 16162, "kg": 4705, "##xley": 20959, "loudly": 9928, "institutional": 12148, "##\u0e19": 29949, "unlock": 19829, "mascara": 27700, "visual": 5107, "evidently": 15329, "showing": 4760, "paradox": 20506, "yun": 22854, "##dak": 23597, "charismatic": 23916, "majesty": 9995, "vain": 15784, "\u30e3": 1728, "##\u0915": 29851, "arterial": 25543, "crouched": 14275, "marine": 3884, "tending": 25069, "nodes": 14164, "hirsch": 28127, "##ow": 5004, "cal": 10250, "##ca": 3540, "induction": 15946, "litigation": 15382, "score": 3556, "consistent": 8335, "paraguay": 13884, "template": 23561, "slam": 9555, "##ifer": 23780, "##ffs": 21807, "[unused226]": 231, "sad": 6517, "collar": 9127, "\u0153": 1107, "shankar": 17429, "mao": 15158, "blaine": 20002, "programmers": 28547, "colleagues": 8628, "libby": 19533, "##otte": 28495, "translates": 16315, "ship": 2911, "openings": 16556, "karachi": 15381, "##cise": 18380, "professorship": 22661, "sharp": 4629, "monks": 9978, "telecommunication": 25958, "\u4e16": 1745, "why": 2339, "turin": 13667, "kings": 5465, "lloyd": 6746, "component": 6922, "##gn": 16206, "ancestor": 13032, "bowing": 26690, "##dion": 29573, "brilliant": 8235, "ionic": 24774, "contacted": 11925, "##-": 29624, "chorale": 26561, "bohemian": 18063, "grey": 4462, "##\u043d\u0430": 19865, "lads": 29126, "attendants": 26727, "americana": 25988, "nikolai": 13870, "crates": 27619, "pavel": 18635, "victory": 3377, "handicap": 15822, "cinematic": 21014, "scientology": 23845, "hoop": 27669, "[unused424]": 429, "ups": 11139, "attracted": 6296, "wei": 11417, "movement": 2929, "noticing": 15103, "marlins": 27055, "##itors": 27287, "##\u0627": 25573, "##p": 2361, "##\u06be": 29844, "##iss": 14643, "##ists": 5130, "curtains": 14694, "\u6c37": 1895, "##logue": 24277, "shea": 16994, "rightful": 27167, "jake": 5180, "whitehall": 28361, "automatically": 8073, "hannover": 29209, "##tted": 16190, "\u706b": 1906, "inquisition": 24638, "affiliation": 12912, "gold": 2751, "bulge": 23708, "satisfied": 8510, "centenary": 17705, "##vy": 10736, "[unused978]": 983, "elijah": 14063, "greenwood": 16827, "freeway": 10846, "bad": 2919, "nothin": 24218, "contact": 3967, "dragging": 11920, "apache": 15895, "##iful": 18424, "##oche": 23555, "##ados": 28118, "unit": 3131, "slice": 14704, "asking": 4851, "##ulous": 16203, "station": 2276, "##cats": 19588, "chesterfield": 22699, "cabbage": 28540, "##ael": 21147, "envelope": 11255, "national": 2120, "##ary": 5649, "door": 2341, "bavarian": 15097, "##lastic": 28723, "\u6625": 1867, "knowing": 4209, "530": 23523, "northwards": 27592, "geneva": 9810, "freshwater": 12573, "citadel": 15364, "##lster": 29576, "artworks": 22000, "pianos": 27864, "##rine": 11467, "##ville": 3077, "##uddin": 17375, "##\u209a": 30097, "valves": 17355, "captivity": 16187, "lays": 19764, "proportions": 19173, "concerned": 4986, "tour": 2778, "\u1d2e": 1491, "unconventional": 23693, "\u2f65": 1634, "clinging": 17892, "feel": 2514, "ing": 13749, "barbie": 22635, "##mate": 8585, "scrap": 15121, "seahawks": 21390, "coma": 16571, "saturated": 23489, "intersecting": 27294, "morris": 6384, "suns": 19352, "##wei": 19845, "samples": 8168, "entrepreneurship": 20213, "humming": 20364, "##mour": 20360, "akin": 17793, "##naire": 20589, "kinds": 7957, "complaints": 10821, "##ls": 4877, "promotes": 14067, "elite": 7069, "observatory": 9970, "##bled": 23242, "undertook": 12543, "spitfire": 28323, "boom": 8797, "vita": 19300, "filmed": 6361, "##\u014b": 29673, "\u06a9": 1304, "relating": 8800, "olympus": 26742, "midst": 12930, "##der": 4063, "animation": 7284, "1931": 4739, "encourage": 8627, "dso": 22951, "conflict": 4736, "##para": 28689, "crosby": 14282, "##lau": 17298, "sometime": 8811, "kathleen": 14559, "\u3008": 1637, "daisy": 10409, "##word": 18351, "injected": 19737, "eruption": 17259, "persona": 16115, "purpose": 3800, "humphrey": 15462, "##ashi": 12914, "humiliating": 28284, "chorus": 7165, "[unused422]": 427, "glow": 8652, "##iz": 10993, "harrisburg": 24569, "800": 5385, "##ives": 24653, "honda": 11990, "pete": 6969, "secretary": 3187, "kids": 4268, "earned": 3687, "indies": 9429, "1912": 4878, "capitals": 15433, "circling": 18519, "nicknamed": 9919, "excel": 24970, "haze": 16332, "min": 8117, "addison": 18403, "guessed": 11445, "trust": 3404, "e": 1041, "reformation": 13708, "melt": 14899, "dans": 18033, "elizabeth": 3870, "[unused85]": 86, "creation": 4325, "chung": 15972, "bassett": 28303, "hms": 7220, "##rge": 20800, "2013": 2286, "hazardous": 17760, "thrive": 25220, "redevelopment": 15582, "snort": 26759, "\u1106": 1459, "enacted": 11955, "193": 19984, "storytelling": 20957, "[unused324]": 329, "clinch": 29119, "oleg": 25841, "completes": 28123, "convictions": 20488, "religion": 4676, "cured": 21391, "sermons": 20855, "exterior": 8829, "##ropolis": 23248, "sized": 7451, "rejected": 5837, "##eno": 16515, "##yat": 26139, "easy": 3733, "##box": 8758, "hilarious": 26316, "railing": 15747, "beating": 6012, "slant": 27474, "##eva": 13331, "tugs": 29306, "patel": 20455, "##fb": 26337, "##uru": 14129, "shocked": 7135, "runs": 3216, "pen": 7279, "critics": 4401, "cricketer": 9490, "roadway": 18799, "repetitive": 23563, "means": 2965, "networking": 14048, "forty": 5659, "##ored": 19574, "manny": 16320, "general": 2236, "votes": 4494, "charm": 11084, "basil": 14732, "##hism": 23108, "northwest": 4514, "##ress": 8303, "discovers": 9418, "corrected": 13371, "yourself": 4426, "guessing": 16986, "spider": 6804, "irrigation": 12442, "future": 2925, "gauge": 7633, "plus": 4606, "liz": 9056, "examining": 12843, "albums": 4042, "memorable": 13432, "substituted": 17316, "deception": 17575, "classrooms": 12463, "orb": 19607, "cr": 13675, "\u3068": 1666, "dmitri": 28316, "169": 18582, "destruction": 6215, "wilder": 18463, "hatfield": 26853, "pace": 6393, "nagasaki": 27107, "##ular": 7934, "1846": 9244, "jensen": 14857, "dictator": 21237, "stylistic": 24828, "mercenary": 22146, "loki": 24143, "lama": 18832, "##gano": 29451, "assured": 8916, "##cier": 19562, "tents": 17732, "shoved": 7468, "ch": 10381, "catches": 11269, "fae": 17282, "tapped": 10410, "##pile": 22090, "cod": 19429, "airplanes": 24042, "##uy": 26230, "initials": 20381, "participation": 6577, "bullet": 7960, "caps": 9700, "peer": 8152, "sexually": 12581, "flemish": 15427, "depending": 5834, "lashed": 25694, "caravan": 17184, "seychelles": 27438, "##\uff09": 30514, "\u2ea9": 1632, "floods": 14295, "inversion": 28527, "inclusion": 10502, "ci": 25022, "##dice": 24598, "regarded": 5240, "gale": 14554, "retains": 14567, "\u3063": 1663, "physicians": 11572, "rey": 12569, "skopje": 29255, "currie": 20667, "##lford": 23211, "intersection": 6840, "advancing": 10787, "category": 4696, "honored": 8686, "arbitrary": 15275, "##tori": 29469, "difficulty": 7669, "hamburg": 8719, "##kee": 20553, "diffuse": 28105, "rattled": 19252, "04": 5840, "disciplines": 12736, "males": 3767, "##\u751f": 30436, "diplomacy": 17610, "##tails": 22081, "##cross": 16458, "##eman": 16704, "propaganda": 10398, "martins": 19953, "mischievous": 25723, "##\u6b63": 30414, "##\u6cb3": 30425, "1818": 12094, "photographed": 16164, "tree": 3392, "\u05e6": 1263, "##iv": 12848, "expressions": 11423, "[unused794]": 799, "match": 2674, "indirectly": 17351, "streaks": 21295, "graz": 26918, "lewis": 4572, "##tley": 18492, "losses": 6409, "futsal": 21921, "evicted": 25777, "pods": 26723, "oxygen": 7722, "capitalist": 19640, "jasper": 14791, "remy": 22712, "cheney": 23745, "75": 4293, "cp": 18133, "279": 25745, "probing": 28664, "[unused569]": 574, "assault": 6101, "##\uff0e": 30517, "##rius": 13245, "[unused503]": 508, "\u00be": 1093, "guitarists": 28523, "stockton": 19161, "##and": 5685, "entrepreneurs": 17633, "onwards": 9921, "##fia": 22749, "proprietor": 21584, "[unused588]": 593, "wembley": 16538, "##ror": 29165, "##\u064a": 14498, "rotated": 20931, "stoke": 13299, "480": 17295, "breaking": 4911, "allegations": 9989, "138": 15028, "vacated": 15348, "##weiler": 22384, "##formed": 29021, "other": 2060, "viola": 10482, "mgm": 15418, "chalk": 16833, "tables": 7251, "1942": 3758, "licensing": 13202, "activate": 20544, "reforming": 29455, "plata": 19534, "fibre": 20962, "whole": 2878, "cypress": 22183, "engined": 21235, "pitchfork": 22355, "accommodate": 8752, "[unused485]": 490, "origin": 4761, "hid": 11041, "purely": 11850, "143": 16065, "rematch": 18229, "[unused533]": 538, "groaned": 9655, "peninsula": 6000, "android": 11924, "##scribe": 29234, "\u702c": 1905, "1857": 8204, "immaculate": 19532, "realises": 25924, "##mies": 28397, "##color": 18717, "1961": 3777, "probability": 9723, "dressing": 11225, "pinched": 18521, "enrolled": 8302, "apartheid": 17862, "##cken": 19766, "middlesex": 13654, "mandolin": 17687, "madhya": 20841, "351": 28474, "##uri": 9496, "specifically": 4919, "[unused798]": 803, "feminism": 20050, "pri": 26927, "oppose": 15391, "prehistoric": 14491, "electronics": 8139, "stills": 26105, "homemade": 25628, "bancroft": 29351, "##de": 3207, "identities": 15702, "stud": 16054, "stroking": 14943, "tribunal": 12152, "carbonate": 26427, "trafficking": 11626, "peering": 16740, "case": 2553, "stamford": 22469, "bahadur": 21715, "naples": 10553, "canada": 2710, "appearance": 3311, "##lda": 15150, "silas": 18553, "stilled": 22791, "radiant": 23751, "winnie": 27125, "##iting": 15402, "underwater": 11564, "relied": 13538, "artisans": 26818, "##bar": 8237, "##rae": 16652, "##\u5c71": 30357, "[unused277]": 282, "normally": 5373, "##wa": 4213, "tasha": 25448, "clandestine": 24450, "cessna": 27664, "##igen": 29206, "chat": 11834, "##mming": 25057, "chao": 22455, "##\u677e": 30406, "resource": 7692, "convincing": 13359, "revived": 10570, "fronted": 23291, "quarter": 4284, "insistent": 29204, "tombs": 16623, "briefcase": 21793, "amounted": 18779, "protocol": 8778, "60": 3438, "##ith": 8939, "dorset": 15367, "motorized": 26172, "browne": 15005, "lure": 17256, "ask": 3198, "##ucible": 21104, "columns": 7753, "nevertheless": 6600, "increasingly": 6233, "carving": 18441, "gates": 6733, "testament": 9025, "##bot": 18384, "##ud": 6784, "simplicity": 17839, "students": 2493, "1838": 9931, "xiii": 15031, "gurney": 25061, "tenant": 16713, "\u0bb0": 1391, "rouse": 27384, "[unused188]": 193, "ariel": 16126, "picked": 3856, "trier": 25487, "##\u2153": 30109, "specifications": 15480, "ambiguous": 20080, "teachings": 12209, "overlooking": 12549, "causeway": 23336, "##berman": 23991, "##hu": 6979, "ruined": 9868, "interim": 9455, "##che": 5403, "points": 2685, "tribute": 7050, "##esh": 9953, "carts": 25568, "##mona": 21781, "loaned": 13190, "leigh": 11797, "nationalist": 8986, "84": 6391, "donate": 21357, "preceded": 11677, "terminus": 7342, "blasted": 18461, "childish": 24282, "individual": 3265, "printer": 15041, "detained": 14620, "##inas": 15227, "position": 2597, "rios": 25836, "uncomfortable": 8796, "phi": 13569, "planetary": 17700, "pitch": 6510, "penetrating": 22391, "axial": 26819, "munster": 11348, "survey": 5002, "dragged": 7944, "##hner": 28989, "failures": 15428, "[unused510]": 515, "chesapeake": 20867, "guangzhou": 18693, "paige": 17031, "skinned": 19937, "aiding": 24791, "barron": 23594, "toast": 15174, "1861": 6863, "apparatus": 14709, "dec": 11703, "vibrant": 17026, "privileged": 21598, "thousands": 5190, "##51": 22203, "firms": 9786, "##\u00b7": 29661, "chihuahua": 28480, "##pathic": 25940, "ursula": 20449, "epidemic": 16311, "jays": 18930, "systematically": 23087, "##urgent": 27176, "acceleration": 16264, "cv": 26226, "austin": 5899, "1854": 8421, "##tya": 21426, "garrison": 8427, "ceo": 5766, "armenia": 10110, "1682": 29478, "[unused241]": 246, "stopping": 7458, "sandals": 24617, "financial": 3361, "accomplish": 14570, "discs": 15303, "political": 2576, "\u300e": 1643, "##cript": 23235, "albert": 4789, "uh": 7910, "fay": 23201, "unmanned": 24075, "##point": 8400, "expand": 7818, "bubble": 11957, "[unused254]": 259, "precipitation": 13511, "14": 2403, "196": 20035, "idiots": 28781, "heroin": 19690, "beetle": 7813, "experiences": 6322, "##tlan": 28922, "nottinghamshire": 20126, "##ther": 12399, "##\u05ea": 29813, "shu": 18454, "rosa": 9508, "queensland": 5322, "illustrator": 13825, "departed": 7745, "jaime": 14519, "airlines": 7608, "paralympic": 17029, "baird": 20866, "legal": 3423, "recounts": 23412, "maru": 26280, "antoinette": 28429, "##*": 29621, "\u6c5f": 1897, "##\u1103": 29993, "indian": 2796, "##resses": 25932, "ethel": 19180, "[unused431]": 436, "fan": 5470, "removes": 20362, "congressional": 7740, "##leg": 23115, "##np": 16275, "hunan": 27374, "kingston": 9803, "starting": 3225, "cathedral": 5040, "obtained": 4663, "machinery": 10394, "interred": 13917, "tor": 17153, "\u694a": 1883, "##ental": 21050, "southeastern": 8252, "designations": 26672, "##mare": 24376, "##ml": 19968, "##lk": 13687, "pillows": 17860, "alessandro": 17956, "##nca": 20909, "incarcerated": 23995, "iraq": 5712, "severity": 18976, "parishes": 11600, "mala": 28935, "unknown": 4242, "\u092d": 1330, "##osis": 12650, "birthplace": 14508, "##inates": 28184, "laundry": 14533, "saddle": 12279, "intellect": 24823, "masjid": 27779, "mcgraw": 24179, "mellon": 22181, "herds": 28822, "practical": 6742, "dialogues": 22580, "##iation": 18963, "##caster": 25490, "deteriorated": 20111, "labourers": 24043, "##eti": 20624, "tube": 7270, "ceramic": 14692, "365": 19342, "whimper": 28544, "digger": 28661, "forbidden": 10386, "##fusion": 20523, "##tose": 22282, "atm": 27218, "aboard": 7548, "packs": 15173, "booth": 9065, "participating": 8019, "plumbing": 27902, "whose": 3005, "montrose": 24990, "st": 2358, "sumatra": 18262, "##ones": 21821, "regret": 9038, "march": 2233, "emil": 16243, "prosecuted": 21651, "safer": 13726, "shipment": 22613, "surfer": 27747, "##\u300f": 30170, "boyd": 12164, "different": 2367, "subdivided": 15369, "groin": 20092, "chest": 3108, "filly": 22062, "routes": 5847, "neglect": 19046, "tangible": 24600, "##tang": 26067, "##rz": 15378, "##\u10d7": 29980, "bowled": 19831, "doctor": 3460, "sabotage": 20223, "solos": 24339, "sf": 16420, "milk": 6501, "accumulate": 27598, "hebrew": 6836, "sanctuary": 8493, "[unused477]": 482, "collectively": 13643, "etc": 4385, "anhalt": 27088, "reused": 26513, "endangered": 10193, "dress": 4377, "playwright": 11170, "mean": 2812, "23rd": 13928, "libertarian": 19297, "174": 19492, "##culus": 28703, "gaza": 14474, "infirmary": 23453, "##sts": 12837, "[unused726]": 731, "freezing": 12809, "designation": 8259, "quarterfinals": 9237, "decides": 7288, "\u05d1": 1242, "nonprofit": 14495, "##vern": 23062, "tau": 19982, "boots": 6879, "incapable": 19907, "smaller": 3760, "rachel": 5586, "competence": 22219, "##ns": 3619, "tuesday": 9857, "tre": 29461, "causing": 4786, "parting": 20254, "##erina": 26052, "##his": 24158, "##icz": 18682, "troy": 9553, "charcoal": 18872, "pennsylvania": 3552, "fists": 10006, "faso": 22773, "zeus": 15208, "mountainous": 14897, "rotation": 9963, "loose": 6065, "articles": 4790, "##lvis": 28530, "maris": 23787, "bike": 7997, "sec": 10819, "\u305b": 1659, "crushed": 10560, "revue": 17480, "\u2079": 1543, "carmichael": 23537, "aperture": 18892, "chronological": 23472, "lethal": 12765, "##naud": 26160, "compression": 13379, "flop": 28583, "##pc": 15042, "remaining": 3588, "ra": 10958, "emergencies": 26360, "daze": 28918, "\u4f0a": 1762, "physician": 7522, "[unused184]": 189, "transatlantic": 26617, "northwestern": 7855, "[unused259]": 264, "geography": 10505, "##islaus": 25678, "cheating": 16789, "##\u05e0": 29803, "##pressing": 24128, "loop": 7077, "spikes": 19547, "nyu": 27935, "##uis": 27020, "pathogen": 26835, "commended": 22429, "rid": 9436, "##dity": 25469, "##film": 23665, "depart": 18280, "##els": 9050, "eduardo": 14846, "peasants": 13193, "drenched": 25265, "\u533a": 1782, "coronation": 12773, "nora": 12306, "delighted": 15936, "greasy": 26484, "landfill": 28382, "screening": 11326, "##kiewicz": 28563, "dei": 14866, "fx": 23292, "chapel": 4970, "booklet": 19271, "tavi": 24283, "reserves": 8269, "awful": 9643, "pioneering": 13280, "bacterial": 17341, "amin": 24432, "footsteps": 9717, "rallies": 22867, "peel": 14113, "ratio": 6463, "hormone": 18714, "parentheses": 27393, "field": 2492, "randall": 12813, "bodily": 20445, "##xx": 20348, "puppets": 26101, "##any": 19092, "\u767a": 1914, "##iers": 10136, "\u0443": 1198, "##hana": 15788, "evening": 3944, "##\u306a": 30193, "battalion": 4123, "brick": 5318, "hostilities": 17601, "ruiz": 18773, "##chen": 8661, "spreading": 9359, "experimentation": 21470, "defeat": 4154, "[unused901]": 906, "##dern": 25888, "[unused276]": 281, "admits": 14456, "lombardy": 27728, "colchester": 20115, "odds": 10238, "apologized": 17806, "##kan": 9126, "mattress": 13342, "##eia": 27958, "##pped": 11469, "economists": 22171, "1824": 11617, "holds": 4324, "nirvana": 26530, "tattoos": 18395, "conclusions": 15306, "absolute": 7619, "##wal": 13476, "disciplinary": 17972, "##hosis": 25229, "##utnant": 24620, "observed": 5159, "moffat": 28528, "redistribution": 25707, "curtiss": 26431, "##\u5973": 30341, "referenced": 14964, "aquatics": 26649, "1815": 10679, "renumbered": 27855, "sw": 25430, "rounds": 6241, "misunderstood": 28947, "retention": 20125, "hardware": 8051, "commands": 10954, "transmitting": 23820, "enduring": 16762, "[unused832]": 837, "wealthy": 7272, "tick": 16356, "thrusts": 25842, "millennia": 27620, "housekeeper": 22583, "##\u30ce": 30243, "##ff": 4246, "spanning": 13912, "uncommon": 13191, "generous": 12382, "protesting": 21248, "pulling": 4815, "ventures": 13252, "turnover": 20991, "missionary": 8696, "retreat": 7822, "bundesliga": 14250, "yamamoto": 28318, "db": 16962, "dual": 7037, "townsend": 16139, "nanjing": 21455, "stirring": 18385, "##bella": 21700, "nobody": 6343, "##pus": 12207, "##\u0251": 29677, "##fare": 17883, "surge": 12058, "caden": 23600, "sorbonne": 28452, "##\u793a": 30449, "limbs": 10726, "refreshing": 27150, "identified": 4453, "songwriting": 14029, "##tec": 26557, "hen": 21863, "lucius": 15639, "##ice": 6610, "motorcycles": 18580, "transylvania": 20816, "moves": 5829, "serve": 3710, "abc": 5925, "eating": 5983, "wireless": 9949, "esa": 28776, "qin": 19781, "##oca": 24755, "guo": 22720, "decor": 25545, "##dha": 17516, "##olio": 29401, "interpreting": 25455, "##tha": 8322, "library": 3075, "indigenous": 6284, "stella": 11894, "orchard": 15623, "##ailed": 17440, "celine": 24550, "##tum": 11667, "##tford": 26341, "##\u304d": 30178, "eaton": 17642, "usl": 22448, "spear": 12341, "fog": 9666, "torque": 15894, "\u062c": 1275, "[unused548]": 553, "charming": 11951, "edited": 5493, "\u2011": 1514, "defeats": 14222, "##amp": 16613, "numerous": 3365, "##chner": 28254, "##\u0bb5": 29930, "wharf": 16435, "##wood": 3702, "macon": 20025, "achilles": 23167, "217": 20335, "flock": 19311, "\u30e1": 1726, "ignacio": 22988, "##erton": 20995, "##antes": 24985, "panels": 9320, "livelihood": 24585, "choked": 12444, "sellers": 19041, "squeeze": 11025, "\u0292": 1138, "gospels": 24131, "standardization": 28648, "breaks": 7807, "informally": 21858, "##drome": 29171, "##comb": 18274, "1653": 29309, "ethiopia": 11154, "coordinates": 12093, "##suit": 28880, "##ddin": 18277, "fellows": 13572, "infiltrate": 29543, "sultanate": 21308, "##rock": 16901, "germany": 2762, "##kovic": 14733, "douglass": 27485, "onion": 20949, "mating": 15100, "devotion": 13347, "bengal": 8191, "marion": 10115, "specialty": 12233, "thom": 19438, "wolverhampton": 20085, "##\u110b": 29999, "knesset": 27899, "[unused812]": 817, "dwellings": 16707, "twenty": 3174, "1750": 18171, "##rti": 28228, "##coll": 26895, "tightened": 8371, "varsity": 11710, "zane": 6944, "modification": 14080, "loss": 3279, "violent": 6355, "perfect": 3819, "scientist": 7155, "nutritional": 28268, "tatar": 29241, "smirk": 15081, "refined": 15514, "##pate": 17585, "ghetto": 17276, "opined": 26084, "perform": 4685, "competitors": 10159, "frankie": 12784, "rainer": 28035, "regulators": 25644, "conversions": 25834, "[unused331]": 336, "68": 6273, "junior": 3502, "shutting": 17521, "compass": 16681, "##\u5b97": 30347, "empirical": 17537, "[unused2]": 3, "integral": 9897, "such": 2107, "nelson": 5912, "cleansing": 26799, "w": 1059, "[unused740]": 745, "##\u207a": 12744, "[unused216]": 221, "content": 4180, "##elling": 23918, "believers": 20373, "incidents": 10444, "##tablished": 28146, "##hurst": 10510, "##\uff0f": 30518, "crane": 11308, "covenant": 16077, "inflammation": 21733, "1708": 27337, "\u1d4d": 1500, "duncan": 7343, "attempts": 4740, "##\u8c9d": 30478, "edward": 3487, "yankee": 17652, "[unused980]": 985, "cpu": 17368, "th": 16215, "##cko": 19665, "\u98df": 1978, "disapproval": 21406, "##yra": 19563, "##titled": 21309, "uphold": 27329, "hayward": 21506, "calculated": 10174, "##houses": 15666, "mmm": 25391, "referring": 7727, "flexibility": 16991, "tolerance": 13986, "trance": 16588, "committed": 5462, "\u306f": 1672, "1801": 12410, "##lco": 22499, "##be": 4783, "noting": 9073, "reproduction": 14627, "kang": 16073, "feeder": 21429, "deng": 26957, "valencia": 13083, "mm": 3461, "rockefeller": 16696, "headquarters": 4075, "traveler": 20174, "curves": 10543, "[unused987]": 992, "portrays": 17509, "wreck": 12006, "rose": 3123, "excitement": 8277, "\u3048": 1649, "microphone": 15545, "icy": 13580, "##keeping": 18321, "##elis": 29282, "shelter": 7713, "##uma": 12248, "##uto": 16161, "benfica": 26542, "lightweight": 12038, "wow": 10166, "warrior": 6750, "225": 14993, "digest": 17886, "outlets": 11730, "eminent": 14953, "##ddy": 14968, "##icle": 25128, "topology": 19587, "[unused481]": 486, "1884": 6988, "##gist": 24063, "ymca": 26866, "##utive": 28546, "benoit": 21721, "crush": 10188, "mass": 3742, "senegal": 16028, "deposed": 18298, "populous": 20151, "cake": 9850, "##meter": 22828, "approved": 4844, "tight": 4389, "trophies": 22236, "##hman": 13890, "shell": 5806, "probable": 15596, "##oured": 16777, "hound": 19598, "##jing": 29518, "[unused785]": 790, "meredith": 10635, "nobility": 11760, "archipelago": 13888, "real": 2613, "adapted": 5967, "primetime": 18474, "chemist": 15535, "sports": 2998, "bible": 6331, "##storm": 19718, "examiner": 19684, "flip": 11238, "mcnamara": 28340, "[unused6]": 7, "bartholomew": 19866, "counties": 5721, "opponents": 7892, "flowing": 8577, "[unused760]": 765, "techniques": 5461, "##wy": 18418, "##ppa": 13944, "article": 3720, "[unused960]": 965, "petite": 20146, "##zier": 21548, "blazers": 28513, "muse": 18437, "eugene": 8207, "yves": 19687, "1981": 3261, "##ber": 5677, "attends": 23933, "hagen": 24047, "##gat": 20697, "require": 5478, "161": 17365, "gloucester": 13370, "assessments": 20794, "egan": 27889, "questionable": 21068, "depended": 17292, "defective": 28829, "skirt": 9764, "alvarez": 16309, "official": 2880, "hyper": 23760, "related": 3141, "trees": 3628, "##\u0bb0": 29927, "##wt": 26677, "ball": 3608, "warships": 15964, "gala": 16122, "endless": 10866, "primal": 22289, "##ibility": 13464, "garion": 12523, "fisherman": 19949, "antics": 27440, "[unused965]": 970, "##ndo": 15482, "##dent": 16454, "##\u05d5": 29792, "##tituted": 29139, "ep": 4958, "##ang": 5654, "sailors": 11279, "provence": 19923, "superb": 21688, "notions": 21951, "\u2026": 1529, "creature": 6492, "##tly": 14626, "molecule": 13922, "julio": 15090, "1762": 20827, "rajasthan": 16815, "leveled": 22915, "##\u0965": 29881, "rumours": 19200, "##asa": 16782, "##ind": 22254, "action": 2895, "mildly": 19499, "conventions": 12472, "weaknesses": 21775, "austrians": 28439, "urban": 3923, "stalks": 29594, "1850": 7973, "challenger": 12932, "squealed": 26175, "adventures": 7357, "huey": 29503, "happened": 3047, "chilean": 12091, "rei": 24964, "phoebe": 18188, "##im": 5714, "joanne": 23459, "1697": 28690, "##\u00df": 19310, "caledonia": 19305, "benin": 21164, "beatty": 27305, "smiley": 27420, "##ngen": 25997, "ours": 14635, "vidal": 29259, "debt": 7016, "devastated": 13879, "jimmy": 5261, "responses": 10960, "stint": 12116, "breast": 7388, "discretion": 19258, "highlanders": 22672, "cornelius": 17354, "sewer": 22365, "324": 27234, "##\u30d8": 30247, "jailed": 21278, "juliana": 24157, "piano": 3682, "##ent": 4765, "dockyard": 24874, "1640": 21533, "##chio": 23584, "smug": 20673, "recalling": 21195, "##\u2666": 30153, "[unused474]": 479, "bilbao": 25427, "ethical": 12962, "punished": 14248, "unfinished": 14342, "goddamn": 16477, "rabbis": 25602, "[unused136]": 141, "nes": 24524, "eels": 29317, "30": 2382, "nowhere": 7880, "unveiled": 11521, "##lins": 24412, "loses": 12386, "inc": 4297, "apply": 6611, "innovation": 8144, "[unused323]": 328, "of": 1997, "oricon": 22237, "[unused578]": 583, "careless": 23358, "escape": 4019, "expert": 6739, "countryside": 10833, "transparent": 13338, "chestnut": 15655, "shaun": 16845, "filthy": 18294, "##crats": 23423, "clover": 25133, "\u4ebb": 1757, "mod": 16913, "labels": 10873, "padres": 21577, "##wen": 12449, "provoked": 19157, "equality": 9945, "trench": 14185, "built": 2328, "royale": 24483, "fooled": 25857, "marketplace": 18086, "1726": 28342, "##\u1d63": 30043, "casting": 9179, "coaching": 7748, "spectral": 17435, "cases": 3572, "dramatically": 12099, "\u0cbe": 1402, "muslim": 5152, "1950": 3925, "\u2010": 1513, "##0s": 16223, "fueled": 17999, "184": 19681, "stallion": 19122, "21": 2538, "surprises": 20096, "sans": 20344, "password": 20786, "successor": 6332, "##arth": 22425, "worsened": 27622, "##ring": 4892, "external": 6327, "##icum": 22167, "editors": 10195, "everyday": 10126, "shire": 13182, "collects": 17427, "protections": 28548, "parody": 12354, "editor": 3559, "calendar": 8094, "lange": 21395, "reigns": 23481, "##\u1107": 29996, "della": 8611, "alliances": 21277, "\u91ce": 1963, "##written": 15773, "blitz": 22312, "anglo": 7819, "##lka": 26518, "notable": 3862, "portfolio": 11103, "frowned": 7335, "listing": 10328, "1743": 25615, "##gpur": 25758, "bump": 16906, "amazement": 21606, "1632": 28216, "biased": 25352, "writ": 25697, "##wan": 7447, "trinidad": 11856, "\u0b9f": 1384, "invasions": 23536, "coventry": 13613, "jeremy": 7441, "occur": 5258, "ramsey": 15092, "ollie": 25208, "shaken": 16697, "ideally": 28946, "##night": 15864, "##ruck": 29314, "##\u68ee": 30408, "chavez": 16860, "##thy": 16921, "disorder": 8761, "doc": 9986, "specifies": 27171, "zombie": 11798, "countries": 3032, "supervisory": 26653, "\u1d63": 1508, "##lase": 25002, "brings": 7545, "subgenus": 25356, "bella": 12101, "beamed": 22587, "teams": 2780, "##igraphy": 23132, "heal": 11005, "tobacco": 9098, "##rill": 24714, "bender": 25386, "##ou": 7140, "nods": 11232, "julian": 6426, "##\u0291": 29703, "pour": 10364, "sends": 10255, "lehigh": 23241, "##\u00bc": 29664, "reno": 17738, "tender": 8616, "class": 2465, "##geny": 17487, "1a": 20720, "infectious": 16514, "1655": 28438, "specialized": 7772, "autonomous": 8392, "toledo": 13163, "thyroid": 29610, "sudbury": 26487, "##oise": 23565, "gables": 27008, "proceeding": 18207, "casualty": 19844, "##lwyn": 29287, "oaks": 13396, "ordered": 3641, "##py": 7685, "##fs": 10343, "angrily": 14136, "##eurs": 26744, "assessing": 20077, "20th": 3983, "##crest": 25313, "[unused213]": 218, "callie": 20072, "18th": 4985, "##dale": 5634, "whatsoever": 18971, "##zam": 20722, "confessions": 21444, "shipments": 24636, "abandoning": 19816, "subordinate": 15144, "demand": 5157, "ua": 25423, "creations": 20677, "\u30ea": 1732, "\u2154": 1582, "[unused513]": 518, "ivan": 7332, "fatty": 19101, "##wine": 21924, "##bane": 27543, "nightingale": 21771, "brush": 8248, "gs": 28177, "nathaniel": 13961, "aggravated": 25817, "##nx": 26807, "[unused876]": 881, "toulouse": 17209, "glenn": 9465, "ahl": 18347, "turkic": 22926, "photography": 5855, "paranormal": 20725, "operatives": 25631, "clade": 21697, "chandler": 13814, "tricked": 24929, "##otti": 21325, "paving": 28007, "ecosystem": 16927, "lengths": 10742, "colours": 8604, "switch": 6942, "montane": 21704, "##tructing": 26310, "##\u2190": 30111, "directorial": 21635, "rex": 10151, "[unused56]": 57, "shear": 18330, "basics": 24078, "lakeside": 28701, "wellness": 25860, "crambidae": 21585, "supreme": 4259, "##vite": 25217, "zoe": 11199, "##igh": 18377, "wen": 19181, "##\u03c2": 19579, "##eborg": 27614, "##\u30e5": 30255, "gag": 18201, "psychiatric": 13691, "penis": 19085, "##\u10d4": 29978, "staff": 3095, "nature": 3267, "tolerate": 19242, "impatiently": 19951, "suez": 21974, "tae": 22297, "\u2502": 1616, "wendell": 24526, "##izing": 6026, "creek": 3636, "##\u0578": 29779, "item": 8875, "unfolded": 23959, "reluctance": 21662, "elements": 3787, "##swick": 27720, "mer": 21442, "reunion": 10301, "automated": 12978, "1685": 25053, "oils": 20631, "nipples": 28124, "documents": 5491, "disagreed": 18335, "panties": 12095, "##\u2086": 30082, "scarborough": 18603, "bot": 28516, "trumpets": 26506, "prosperity": 14165, "inch": 4960, "shaw": 8233, "boomed": 28908, "##nto": 13663, "smartphone": 26381, "fernando": 9158, "define": 9375, "carolyn": 15611, "paved": 12308, "combat": 4337, "additionally": 5678, "ling": 17002, "winning": 3045, "##baldi": 28807, "baskets": 25946, "acronym": 20137, "stars": 3340, "leith": 29011, "[unused859]": 864, "##tel": 9834, "cabinets": 20053, "franco": 9341, "judiciary": 14814, "alderman": 18977, "goaltender": 21437, "cantonese": 22241, "twenties": 18946, "gorgeous": 9882, "affirmed": 19768, "[unused634]": 639, "significantly": 6022, "luz": 26214, "otis": 18899, "buckley": 17898, "pharaoh": 22089, "##\u056c": 29773, "caesar": 11604, "guise": 21980, "gladys": 22386, "leafs": 21349, "charts": 6093, "##hen": 10222, "explanation": 7526, "cyclists": 21912, "encircled": 25759, "respected": 9768, "##yu": 10513, "carr": 12385, "faux": 29276, "##\u4f0a": 30288, "medication": 14667, "indication": 12407, "company": 2194, "70s": 17549, "serial": 7642, "stole": 10312, "remix": 6136, "stiff": 10551, "centered": 8857, "mariano": 22695, "##\u00e6": 29667, "revelations": 22191, "412": 25873, "principals": 27928, "as": 2004, "\uff01": 1986, "asked": 2356, "imagination": 9647, "graders": 23256, "sale": 5096, "magnetic": 8060, "thriller": 10874, "milton": 9660, "wrote": 2626, "chilling": 27017, "slow": 4030, "directly": 3495, "acquitted": 18538, "doorway": 7086, "abolitionist": 29554, "know": 2113, "dana": 11271, "simulation": 12504, "ducks": 14875, "russia": 3607, "##ene": 8625, "veil": 15562, "valor": 27314, "##oat": 16503, "\u045b": 1217, "shelf": 11142, "xbox": 12202, "parachute": 13561, "ludwig": 10302, "[unused284]": 289, "##ching": 8450, "##tour": 21163, "##zai": 25290, "\u0459": 1215, "##stone": 9221, "##mada": 23574, "updated": 7172, "##47": 22610, "plump": 26731, "misty": 15167, "pivotal": 20369, "##resh": 21898, "##36": 21619, "gov": 18079, "137": 14989, "inspections": 29589, "racetrack": 28435, "1933": 4537, "shale": 18488, "woolf": 29572, "##\u2079": 30078, "equatorial": 21333, "disturbed": 12491, "angus": 13682, "hurt": 3480, "[unused565]": 570, "present": 2556, "\u0916": 1316, "autism": 19465, "amend": 27950, "sharing": 6631, "lisa": 7059, "locally": 7246, "reporters": 12060, "hays": 29051, "stevens": 8799, "mandal": 24373, "durga": 28746, "humble": 15716, "espana": 20678, "sar": 18906, "##\u6c34": 30419, "cute": 10140, "norwich": 12634, "threshold": 11207, "##\u00a1": 29644, "reclaimed": 23119, "urgent": 13661, "seas": 11915, "role": 2535, "philosopher": 9667, "nippon": 19364, "upright": 10051, "stadion": 20756, "\u0927": 1326, "thayer": 25563, "##bh": 23706, "breached": 25769, "##\u0905": 29847, "##grave": 12830, "malayalam": 12998, "harassment": 16011, "opt": 23569, "##\u0290": 29702, "##inated": 15833, "\u4fdd": 1766, "specimen": 11375, "broughton": 29187, "strata": 22913, "[unused516]": 521, "prisons": 15996, "foam": 17952, "##kic": 29493, "nonsense": 14652, "##ser": 8043, "periods": 6993, "forearms": 27323, "##dicate": 16467, "lan": 17595, "##outh": 17167, "##mos": 15530, "5000": 13509, "eucalyptus": 27111, "appeared": 2596, "death": 2331, "frederic": 15296, "vigor": 24474, "manner": 5450, "##dicated": 26022, "\u9ad8": 1981, "midnight": 7090, "sparked": 13977, "fiance": 19154, "[unused47]": 48, "greek": 3306, "##shima": 24772, "##bery": 22509, "fossil": 10725, "button": 6462, "grateful": 8794, "##\u30b3": 30230, "gained": 4227, "penguin": 13987, "abundance": 14531, "imaginary": 15344, "sicily": 12071, "illustrious": 26150, "pronunciation": 15498, "bound": 5391, "oppression": 20489, "campaigned": 16196, "1985": 3106, "darkened": 13755, "percy": 11312, "\u795e": 1925, "[unused680]": 685, "doi": 9193, "sentiment": 15792, "preferring": 21393, "fear": 3571, "launched": 3390, "sails": 17553, "smirked": 18775, "powers": 4204, "neglected": 15486, "snowy": 20981, "1713": 27016, "##rba": 28483, "funding": 4804, "encoded": 12359, "laser": 9138, "panel": 5997, "stripes": 13560, "##yx": 17275, "corresponded": 27601, "##\u7684": 30442, "attack": 2886, "bragg": 23678, "irina": 25404, "[unused926]": 931, "lists": 7201, "commit": 10797, "frontal": 19124, "herbs": 17561, "strengthen": 12919, "accountants": 29114, "nikola": 24794, "describe": 6235, "brianna": 25558, "homecoming": 20772, "\uff5e": 1995, "times": 2335, "pronouns": 26028, "claims": 4447, "sauce": 12901, "senator": 5205, "making": 2437, "##dran": 24914, "mature": 9677, "shah": 7890, "##ffin": 15379, "un": 4895, "trials": 7012, "rulers": 11117, "##un": 4609, "fontaine": 25749, "mechanized": 23387, "##buro": 23670, "explained": 4541, "##mei": 26432, "hallways": 28274, "rudolf": 12794, "##ulo": 18845, "##nb": 27698, "##cased": 28969, "vaccines": 28896, "flourishing": 29571, "mold": 18282, "romani": 23982, "##\u3055": 30182, "leipzig": 11222, "##ral": 7941, "paints": 23262, "yawned": 27626, "[unused752]": 757, "hop": 6154, "##40": 12740, "##\u0917": 29853, "##vor": 14550, "jean": 3744, "##\u0e15": 29947, "spelling": 11379, "##dic": 14808, "locking": 14889, "[unused660]": 665, "included": 2443, "catholics": 10774, "\u03c7": 1177, "choir": 6596, "complimented": 27175, "##rations": 28893, "lake": 2697, "1618": 29029, "excellence": 8012, "brennan": 13962, "saxophone": 8283, "##\u30c4": 30238, "mint": 12927, "colin": 6972, "205": 16327, "reworked": 27575, "flaming": 19091, "jacob": 6213, "becca": 22140, "renegade": 28463, "bang": 9748, "birmingham": 6484, "\u028b": 1133, "just": 2074, "orbit": 8753, "asserted": 13647, "poole": 19107, "pak": 22190, "##anu": 24076, "pena": 19409, "\u0254": 1112, "##\u2207": 30123, "round": 2461, "\u0440": 1195, "allmusic": 10477, "walking": 3788, "involves": 7336, "carnegie": 11298, "iberian": 21988, "211": 19235, "human": 2529, "synthesizers": 22211, "demonstrated": 7645, "frequented": 24832, "1665": 27676, "summarized": 22539, "surrender": 7806, "stern": 8665, "strip": 6167, "##of": 11253, "currents": 14731, "soto": 22768, "##tead": 14565, "##\u90e8": 30486, "##bedo": 28759, "ethanol": 22886, "remainder": 6893, "hospitalized": 24735, "ambassador": 6059, "liter": 23675, "[unused207]": 212, "whistled": 26265, "##\u0449": 29754, "son": 2365, "alt": 12456, "cambrian": 29228, "##holm": 18884, "mouse": 8000, "advising": 23875, "##agi": 22974, "invest": 15697, "ti": 14841, "horsepower": 15149, "dripped": 22526, "[unused673]": 678, "tries": 5363, "##suka": 26544, "software": 4007, "##ps": 4523, "hating": 22650, "[unused989]": 994, "rates": 6165, "counted": 8897, "undo": 25672, "adamant": 29502, "##nob": 25083, "##anta": 26802, "directors": 5501, "\u06be": 1307, "##ties": 7368, "presence": 3739, "bracelet": 19688, "##pired": 21649, "gottingen": 23607, "##vable": 12423, "nino": 20801, "tipperary": 17333, "hailey": 21664, "##cco": 21408, "mutations": 14494, "greenland": 16128, "\u0446": 1201, "##bana": 19445, "\u0574": 1229, "everyone": 3071, "chance": 3382, "brien": 9848, "comprising": 9605, "##rization": 26910, "stairs": 5108, "pang": 20657, "[unused886]": 891, "contempt": 17152, "kei": 26679, "hilary": 22744, "##hyllum": 27750, "fast": 3435, "joe": 3533, "[unused274]": 279, "salvage": 18340, "##\u11b7": 30023, "toxic": 11704, "403": 28203, "cabaret": 19685, "austrian": 6161, "339": 28977, "vegetables": 11546, "[unused843]": 848, "servants": 8858, "theo": 14833, "buffer": 17698, "##mont": 9629, "illnesses": 24757, "congregation": 7769, "##eo": 8780, "##wee": 28394, "113": 12104, "nedra": 28240, "powered": 6113, "##\u0cb0": 29937, "exchanged": 10573, "abroad": 6917, "sentenced": 7331, "carey": 11782, "isla": 25340, "fuels": 20145, "summer": 2621, "unity": 8499, "inactive": 16389, "onboard": 27120, "ashore": 16145, "kitchener": 27154, "hotspur": 25985, "warn": 11582, "price": 3976, "benches": 19571, "rallied": 24356, "stains": 27094, "recovery": 7233, "[unused236]": 241, "##\u2122": 30108, "##tes": 4570, "disadvantage": 20502, "diner": 15736, "blake": 6511, "substrates": 23725, "##lo": 4135, "revelation": 11449, "[unused810]": 815, ">": 1028, "stab": 17079, "aegean": 27198, "blink": 12373, "##agger": 27609, "[unused526]": 531, "animated": 6579, "quite": 3243, "##quil": 26147, "##nagar": 14346, "mortgage": 14344, "inspired": 4427, "mosque": 8806, "exclusion": 15945, "gradual": 16612, "[unused405]": 410, "gps": 14658, "shadowy": 22801, "##hope": 26441, "bourbon": 15477, "organism": 15923, "krishna": 10871, "employees": 5126, "garlic": 20548, "##tara": 27115, "48": 4466, "gazed": 11114, "noun": 15156, "rugged": 17638, "##heimer": 18826, "galactic": 21375, "predecessors": 16372, "ronald": 8923, "##belt": 21561, "medieval": 5781, "##meo": 26247, "elias": 14579, "[unused192]": 197, "talents": 11725, "cheerfully": 27403, "##boy": 11097, "##cite": 17847, "[unused131]": 136, "pumpkin": 25730, "##sp": 13102, "##\u3075": 30200, "firm": 3813, "##ble": 3468, "convenience": 15106, "ragged": 14202, "complex": 3375, "huge": 4121, "240": 11212, "stray": 15926, "sudan": 10411, "[unused484]": 489, "macedonia": 11492, "northward": 17192, "occurrence": 14404, "whereas": 6168, "tapping": 15135, "schleswig": 21173, "##inia": 23309, "calming": 23674, "[unused117]": 122, "heavy": 3082, "matching": 9844, "dazed": 19720, "indicated": 5393, "obstacle": 18355, "##\u043a": 23925, "sigismund": 26748, "prizes": 11580, "##\u0575": 29777, "cables": 15196, "[unused744]": 749, "[unused930]": 935, "##vie": 13469, "exercising": 28428, "creates": 9005, "curtain": 11002, "##eke": 23941, "trivial": 20610, "##iology": 20569, "##tained": 28055, "sketches": 12741, "##rized": 18425, "inverse": 19262, "insurgents": 20541, "hawke": 24882, "421": 29403, "[unused539]": 544, "18": 2324, "##ult": 11314, "kazakhstan": 11769, "dark": 2601, "reed": 7305, "shaft": 9093, "descendant": 12608, "seattle": 5862, "letter": 3661, "chose": 4900, "rendering": 14259, "snarl": 24845, "smoothly": 15299, "intermediate": 7783, "clement": 12223, "venetian": 15510, "mention": 5254, "otherwise": 4728, "150": 5018, "aspiring": 22344, "subjective": 20714, "##&": 29617, "cortex": 17132, "predictions": 20932, "##are": 12069, "moderate": 8777, "231": 20304, "pillar": 14809, "pl": 20228, "falkland": 25257, "according": 2429, "estate": 3776, "amelie": 25285, "university": 2118, "scroll": 17186, "nuevo": 22250, "agencies": 6736, "##rza": 24175, "dora": 21008, "##\u043e\u0432\u0438\u0447": 16198, "braced": 15515, "cairo": 11096, "waterfront": 16317, "##ario": 16843, "committing": 16873, "melee": 27868, "flute": 8928, "heroic": 14779, "helium": 22764, "clauses": 24059, "cerambycidae": 13168, "separates": 18600, "susannah": 20471, "pueblo": 18273, "fairness": 26935, "newspapers": 6399, "##keeper": 13106, "diminished": 15911, "mina": 19808, "incompatible": 25876, "gentlemen": 11218, "thru": 27046, "nine": 3157, "unfortunately": 6854, "memories": 5758, "accessory": 25339, "1550": 26245, "##ham": 3511, "councillors": 13189, "extent": 6698, "catalonia": 16711, "fearless": 22518, "imperial": 4461, "examination": 7749, "\u304f": 1653, "ballistic": 19630, "macleod": 23075, "thumped": 28963, "attitudes": 13818, "dignity": 13372, "##dle": 10362, "faded": 8105, "\u03b8": 1162, "universal": 5415, "camping": 13215, "receiving": 4909, "betting": 19244, "strategy": 5656, "defender": 8291, "miss": 3335, "laying": 10201, "decorative": 11584, "##ih": 19190, "flickered": 15999, "mayhem": 26865, "lateral": 11457, "recorder": 14520, "blamed": 11248, "ebony": 27680, "heartland": 27399, "##\u306e": 30197, "willem": 18811, "bien": 29316, "ignore": 8568, "compassion": 15398, "few": 2261, "chassis": 11832, "##ldon": 19932, "tracing": 16907, "broader": 12368, "##kind": 18824, "cows": 17188, "castes": 26254, "presbyterian": 10133, "staffed": 21121, "waved": 7147, "bestowed": 17398, "rn": 29300, "##\u00a3": 29646, "helplessly": 24942, "celebrate": 8439, "##eller": 24038, "##athic": 20972, "##\u9f8d": 30508, "bedford": 12003, "wii": 16568, "\u00a35": 27813, "frontier": 8880, "##ough": 10593, "fiscal": 10807, "1662": 25909, "stretch": 7683, "monmouth": 20433, "corpse": 11547, "bandage": 24446, "key": 3145, "##ridge": 9438, "talbot": 14838, "mounting": 15986, "plumage": 28764, "james": 2508, "banking": 8169, "##core": 17345, "bowl": 4605, "krakow": 14576, "hazard": 15559, "repeats": 17993, "syrian": 9042, "budget": 5166, "aviator": 24035, "kirk": 11332, "2016": 2355, "modified": 6310, "smashed": 14368, "esteem": 19593, "##sio": 20763, "1972": 3285, "girlfriend": 6513, "posted": 6866, "economically": 15318, "##quitable": 28298, "stained": 9702, "knob": 16859, "porte": 25927, "purification": 28406, "##tler": 25091, "history": 2381, "beginning": 2927, "financed": 13790, "martina": 23508, "underwear": 14236, "results": 3463, "mentions": 9704, "connected": 4198, "##oides": 25064, "yellow": 3756, "occupants": 18837, "##ona": 7856, "samsung": 19102, "##script": 22483, "international": 2248, "literally": 6719, "mountain": 3137, "salazar": 25315, "[unused527]": 532, "ie": 29464, "consequences": 8465, "diseases": 7870, "incredible": 9788, "childless": 26983, "responsible": 3625, "jointly": 10776, "externally": 27223, "##ouk": 27967, "signage": 29404, "##zuki": 24015, "give": 2507, "\u2016": 1519, "craved": 25155, "cultivated": 13237, "[unused623]": 628, "disc": 5860, "form": 2433, "lightly": 8217, "##tens": 25808, "nestor": 25397, "disgrace": 29591, "[unused982]": 987, "406": 27433, "barbarians": 28056, "312": 21036, "influenza": 24442, "calcium": 13853, "complicated": 8552, "colleges": 6667, "barlow": 17803, "pm": 7610, "##carbon": 26190, "womb": 26578, "##chaft": 29043, "pamphlets": 24752, "preserving": 15224, "gradient": 17978, "pressed": 4508, "barn": 8659, "rebelled": 25183, "mania": 29310, "events": 2824, "\u306b": 1668, "screenplay": 9000, "##aux": 13754, "yearly": 12142, "december": 2285, "bloc": 15984, "##tre": 7913, "aa": 9779, "tristan": 9822, "ballads": 18456, "600": 5174, "lena": 14229, "##15": 16068, "telenovela": 25754, "\u30ef": 1736, "ipod": 26322, "backup": 10200, "tiny": 4714, "fore": 18921, "##eki": 26576, "rohan": 28605, "manufacturers": 8712, "##\u0435\u0432\u0438\u0447": 22646, "divine": 7746, "ravens": 17272, "##hiti": 27798, "##\u00f8y": 27688, "[unused861]": 866, "homo": 24004, "##oa": 10441, "##mb": 14905, "bodyguards": 25681, "papa": 13008, "rothschild": 19712, "[unused483]": 488, "seller": 14939, "adjusting": 19158, "wetland": 22217, "qur": 23183, "drills": 28308, "jolted": 28801, "##\u0f62": 29970, "patches": 13864, "ps": 8827, "##th": 2705, "550": 13274, "[unused143]": 148, "##yar": 13380, "ta": 11937, "meeting": 3116, "##sko": 21590, "##lium": 21816, "determine": 5646, "evade": 26399, "forewings": 13211, "doug": 8788, "##\u043d": 18947, "##\u0279": 29691, "##eger": 26320, "##com": 9006, "rhys": 13919, "working": 2551, "evident": 10358, "bali": 20222, "[unused30]": 31, "listings": 26213, "comply": 14037, "[unused557]": 562, "record": 2501, "shouting": 11273, "\u00aa": 1076, "##shaft": 25679, "lane": 4644, "virtual": 7484, "albion": 13392, "##\u5ddd": 30361, "achieving": 10910, "disease": 4295, "emirates": 14041, "programmed": 16984, "##qing": 19784, "widened": 8723, "embedded": 11157, "sweat": 7518, "[unused867]": 872, "airbus": 20901, "artefacts": 25762, "collingwood": 20044, "landau": 28570, "laugh": 4756, "pure": 5760, "ruler": 7786, "##tail": 14162, "fishery": 22880, "finishes": 12321, "##chu": 20760, "differential": 11658, "loch": 14941, "neighbouring": 9632, "newborn": 20662, "soo": 17111, "procurement": 21423, "proves": 16481, "shades": 13178, "##nia": 6200, "concepcion": 27331, "ik": 20912, "fewer": 8491, "paler": 24489, "hangar": 18284, "outlook": 17680, "irs": 25760, "\u65b9": 1863, "cruise": 8592, "mainland": 8240, "momentary": 29089, "bleed": 19501, "professionals": 8390, "\u09b9": 1377, "##\u10d8": 29981, "marc": 7871, "crafts": 14030, "##nator": 27413, "magician": 16669, "strength": 3997, "geographical": 10056, "copyright": 9385, "onstage": 23542, "##aldi": 24657, "##ging": 4726, "weimar": 20695, "unpublished": 19106, "riding": 5559, "vessels": 6470, "##icated": 17872, "humboldt": 19249, "excursion": 26144, "##\u03c8": 29738, "##\u0bbe": 29931, "unionist": 17104, "moderately": 17844, "raised": 2992, "marley": 20326, "1920": 4444, "##books": 17470, "deliveries": 23534, "xander": 29019, "bile": 23974, "##kshi": 27488, "naomi": 12806, "evolve": 19852, "dominique": 18165, "pausing": 20490, "splash": 17624, "ear": 4540, "watershed": 12547, "scholarships": 15691, "##hd": 14945, "organizational": 13296, "##rator": 16259, "secrets": 7800, "##bola": 24290, "\u2099": 1568, "[unused894]": 899, "invasive": 17503, "f": 1042, "##tment": 21181, "thread": 11689, "atrocities": 23482, "negligence": 27988, "##bound": 15494, "understands": 19821, "fern": 20863, "##taka": 28412, "tay": 28117, "opposing": 10078, "alexis": 13573, "haynes": 21805, "averaging": 14985, "chuck": 8057, "ip": 12997, "##erre": 28849, "bayern": 21350, "forehead": 6130, "##eyer": 20211, "portals": 27388, "erected": 7019, "consultative": 28581, "pep": 27233, "meditation": 13804, "derivation": 29280, "knot": 12226, "special": 2569, "##with": 24415, "gabriel": 6127, "partisans": 20762, "\u05e5": 1262, "insights": 20062, "1712": 28460, "enslaved": 22216, "demonstrations": 13616, "##ops": 11923, "encompassed": 24058, "perch": 21836, "landon": 20642, "##rnet": 26573, "algae": 18670, "\u0562": 1220, "gift": 5592, "labour": 4428, "havilland": 23994, "rosewood": 29528, "how": 2129, "pleading": 16418, "makes": 3084, "illicit": 25049, "##chenko": 25872, "pathways": 16910, "##lls": 12718, "volga": 26459, "erie": 13374, "royalty": 16664, "philology": 29286, "forbade": 27315, "jose": 4560, "joanna": 15730, "spike": 9997, "nur": 27617, "nik": 23205, "\u0294": 1139, "backyard": 16125, "moderator": 29420, "ghosts": 11277, "##kat": 24498, "immersed": 26275, "enjoyment": 20195, "subdivision": 12572, "##bol": 14956, "solely": 9578, "gregor": 16973, "welsh": 6124, "[unused61]": 62, "musa": 23154, "socio": 17522, "##rated": 9250, "flaps": 26570, "civic": 8388, "coulter": 28293, "##\u30ec": 30260, "cheese": 8808, "squirrels": 29384, "##\u6226": 30382, "hereford": 21136, "legacy": 8027, "##nty": 29405, "region": 2555, "[unused786]": 791, "counselor": 17220, "regular": 3180, "returns": 5651, "defining": 12854, "wwf": 16779, "recoil": 27429, "focused": 4208, "butterflies": 15023, "jets": 9924, "##\u76f8": 30445, "clemson": 25906, "quezon": 26564, "judo": 19083, "##factory": 21450, "brig": 16908, "iaaf": 21259, "##xt": 18413, "\u2083": 1550, "outreach": 15641, "nowadays": 13367, "cushions": 27205, "nate": 8253, "##genase": 28835, "##nberg": 11144, "thumbs": 16784, "##da": 2850, "sms": 22434, "faust": 24021, "buick": 28865, "##work": 6198, "modernized": 27140, "sharpened": 26694, "hz": 22100, "primera": 14837, "##position": 26994, "moment": 2617, "intervention": 8830, "shook": 3184, "gains": 12154, "##rift": 16338, "greater": 3618, "reconnaissance": 8967, "liable": 20090, "groningen": 29070, "dar": 18243, "wellesley": 25658, "poet": 4802, "donor": 15009, "develop": 4503, "greco": 18180, "[unused984]": 989, "\u10d7": 1444, "ellie": 10707, "unsigned": 27121, "portal": 9445, "every": 2296, "kabul": 21073, "vote": 3789, "boring": 11771, "##aith": 22465, "##hom": 23393, "shaded": 25273, "##oes": 22504, "wolff": 23498, "specialization": 28031, "[unused944]": 949, "reverend": 10547, "solomon": 9168, "[unused605]": 610, "iran": 4238, "steelers": 15280, "unsuccessful": 7736, "fairfax": 17833, "issue": 3277, "meal": 7954, "folding": 12745, "gut": 9535, "sustainability": 15169, "demanded": 6303, "102": 9402, "##\u590f": 30334, "1643": 25534, "squadron": 3704, "imported": 10964, "government": 2231, "faltered": 26015, "##mism": 26725, "##borough": 10235, "medici": 22605, "cyclone": 11609, "yells": 22114, "benz": 17770, "pieter": 23759, "comedy": 4038, "[unused492]": 497, "gender": 5907, "parasite": 21198, "prototype": 8773, "proponents": 20401, "[unused195]": 200, "jillian": 27286, "reduces": 13416, "[unused291]": 296, "candy": 9485, "##\u0baf": 29926, "\u0447": 1202, "##ska": 8337, "tragedy": 10576, "precision": 11718, "##foil": 24323, "chairperson": 19072, "pertaining": 20246, "##ffed": 15388, "casa": 14124, "deer": 8448, "suppose": 6814, "lizzie": 15860, "##bal": 10264, "similarly": 6660, "o": 1051, "valle": 20171, "jaenelle": 20757, "##main": 24238, "romantic": 6298, "dallas": 5759, "sprint": 9043, "boardwalk": 29496, "smiling": 5629, "font": 15489, "##vani": 27760, "knockout": 11369, "org": 8917, "##17": 16576, "jewellery": 21545, "mormon": 15111, "reportedly": 7283, "joyah": 27098, "pseudonym": 13881, "##birds": 12887, "brook": 9566, "daughters": 5727, "slade": 18048, "##dome": 26173, "slots": 19832, "hickory": 28158, "\u0905": 1311, "stripped": 10040, "[unused50]": 51, "##mbled": 23931, "##oulos": 28262, "eisenhower": 16551, "pamela": 17217, "##arding": 29154, "baroness": 21479, "publish": 10172, "##iko": 12676, "diesel": 7937, "turnout": 15512, "flare": 17748, "forks": 19896, "moving": 3048, "\u208a": 1557, "aires": 9149, "roanoke": 25899, "##ooping": 29046, "summon": 18654, "swords": 10689, "metric": 12046, "whiskey": 13803, "palazzo": 18482, "multimedia": 14959, "comprised": 11539, "annexation": 18985, "trois": 25527, "##\u0baa": 29924, "beverages": 21705, "qb": 26171, "[unused455]": 460, "governed": 9950, "andre": 7213, "leningrad": 15930, "##pass": 15194, "pieces": 4109, "transverse": 18323, "##\u0430\u043d": 28995, "italics": 19408, "##eley": 22352, "spain": 3577, "##ado": 9365, "##au": 4887, "##bourg": 20431, "move": 2693, "terraces": 25633, "bacon": 11611, "maritime": 7803, "noisy": 20810, "brethren": 17937, "watery": 28259, "southbound": 19751, "lesser": 8276, "##mura": 16069, "buff": 23176, "ferrara": 28635, "##ines": 10586, "lilith": 25576, "dispatched": 14501, "1814": 10977, "administrators": 15631, "yearning": 29479, "gloucestershire": 15905, "interfered": 28976, "\u30bf": 1709, "owing": 11427, "idea": 2801, "laurel": 11893, "tq": 28816, "##viere": 27087, "##quette": 29416, "subset": 16745, "faerie": 27498, "##thing": 20744, "##uda": 14066, "tempting": 23421, "cries": 12842, "cornell": 10921, "marko": 28003, "morocco": 9835, "##rio": 9488, "rep": 16360, "extravagant": 27856, "##card": 11522, "##\u6ca2": 30424, "##furt": 24428, "afghan": 12632, "eritrea": 26040, "1787": 16057, "disrupted": 20275, "##\u0e23": 29953, "syllable": 16353, "grab": 6723, "diaz": 12526, "promise": 4872, "aux": 19554, "narrower": 22546, "www": 7479, "handing": 13041, "\u00bc": 1091, "\u5b66": 1817, "##berger": 14859, "nudged": 18666, "guarding": 17019, "ridiculous": 9951, "##dine": 10672, "[unused787]": 792, "peters": 12420, "##stock": 14758, "commenting": 15591, "median": 3991, "unleashed": 22416, "##oric": 29180, "skimmed": 28862, "##zko": 29002, "glory": 8294, "investigative": 15025, "[unused416]": 421, "my": 2026, "sentimental": 23069, "excavated": 15199, "viii": 9937, "vanguard": 18332, "say": 2360, "sponsoring": 29396, "pipes": 12432, "##poo": 24667, "developments": 8973, "rq": 28134, "##gley": 22971, "fours": 23817, "##wat": 24281, "[unused179]": 184, "\u0f0d": 1425, "##ette": 7585, "wasted": 13842, "julie": 7628, "##7": 2581, "awarded": 3018, "languages": 4155, "teller": 21322, "eireann": 29157, "decorate": 29460, "consumers": 10390, "discovering": 13648, "melancholy": 22247, "methodist": 8938, "root": 7117, "prove": 6011, "madden": 24890, "fabrication": 25884, "##typic": 23186, "##\u0437": 29744, "##rp": 14536, "frustrating": 25198, "wolves": 8588, "bottled": 26071, "drummond": 19266, "scents": 29254, "thin": 4857, "dee": 9266, "branching": 23346, "stance": 11032, "##osing": 18606, "tajikistan": 23538, "levels": 3798, "maynard": 22130, "resides": 11665, "solved": 13332, "leather": 5898, "transfer": 4651, "section": 2930, "etched": 20286, "edouard": 21627, "sharma": 14654, "employing": 15440, "1760": 19096, "inhibit": 26402, "\u00b4": 1084, "assaults": 22664, "cumberland": 12310, "##hoff": 17896, "whistling": 24350, "layne": 22452, "\u9fb8": 1983, "cum": 13988, "##cious": 18436, "army": 2390, "insurrection": 27860, "##ctions": 22014, "elect": 11322, "dirt": 6900, "875": 27658, "chocolate": 7967, "vague": 13727, "immortality": 20107, "vault": 11632, "##\u53e3": 30314, "picturesque": 23273, "sergio": 13983, "bulldogs": 15120, "collier": 20466, "susquehanna": 26361, "1660": 17954, "biennale": 21140, "aggressively": 24663, "jennings": 14103, "lyrics": 4581, "bavaria": 11606, "[unused722]": 727, "temeraire": 23611, "convertible": 22840, "##band": 12733, "backstage": 20212, "##efined": 28344, "desires": 14714, "yokohama": 20507, "salle": 18005, "county": 2221, "olivier": 14439, "amalgamated": 17143, "sucks": 19237, "tnt": 24048, "##watch": 18866, "slovene": 18326, "minute": 3371, "[unused124]": 129, "himself": 2370, "fifteenth": 16249, "smoothed": 17966, "##cht": 10143, "sipping": 24747, "nights": 6385, "stroll": 27244, "##sma": 26212, "ting": 28642, "[unused625]": 630, "earth": 3011, "danger": 5473, "cunningham": 13652, "##hua": 14691, "##hausen": 13062, "bruises": 18438, "boarded": 17383, "novi": 21574, "##cr": 26775, "hadley": 21681, "updates": 14409, "lighter": 9442, "vocal": 5554, "joan": 7437, "tennessee": 5298, "missed": 4771, "digging": 10443, "##rave": 22401, "[unused630]": 635, "toys": 10899, "trauma": 12603, "1875": 7466, "heat": 3684, "interaction": 8290, "interval": 13483, "glances": 13021, "[unused443]": 448, "over": 2058, "takahashi": 25585, "opportunities": 6695, "arrest": 6545, "extended": 3668, "skepticism": 27936, "stationed": 8895, "differs": 12980, "coroner": 22896, "reopened": 11882, "abusive": 20676, "oversaw": 14105, "pga": 14198, "dent": 21418, "amp": 23713, "##hearted": 27693, "##zziness": 29212, "##\u671d": 30400, "visit": 3942, "characteristic": 8281, "\u099b": 1357, "gloss": 27068, "##wicz": 21355, "indeed": 5262, "ponds": 16879, "guildford": 26353, "races": 3837, "\u09b7": 1375, "brains": 14332, "grading": 26886, "deposition": 19806, "301": 19123, "polynomials": 28175, "m\u00b2": 7030, "##rian": 6862, "sarah": 4532, "burst": 6532, "-": 1011, "photographers": 17008, "ledge": 18283, "grimsby": 24470, "coalition": 6056, "stats": 26319, "##graphs": 27341, "lucille": 28016, "unacceptable": 21873, "sculptor": 10160, "ignited": 22395, "##sdale": 15145, "##oop": 18589, "briefing": 27918, "##dana": 25917, "fatima": 27596, "[unused320]": 325, "\u4e8c": 1752, "smiles": 8451, "jamal": 24132, "[unused261]": 266, "xvi": 16855, "deteriorating": 28440, "eleven": 5408, "auto": 8285, "1808": 13040, "broadly": 13644, "##feit": 21156, "##lr": 20974, "staircase": 10714, "ibm": 9980, "enrichment": 27226, "##itical": 26116, "\u090f": 1314, "transformation": 8651, "links": 6971, "##haya": 26115, "##\u092a": 29864, "##hony": 27629, "1873": 7612, "splendid": 21459, "norris": 15466, "locomotive": 8098, "lea": 12203, "instructional": 23219, "##rat": 8609, "durham": 9296, "##sin": 11493, "nanny": 19174, "wehrmacht": 23443, "devised": 14917, "bark": 11286, "salon": 11090, "social": 2591, "space": 2686, "substantially": 12381, "jewels": 15565, "organisation": 5502, "[unused140]": 145, "##tage": 26702, "##yler": 20853, "shrine": 9571, "marries": 19941, "odisha": 21874, "##castle": 23662, "hotels": 9275, "learns": 10229, "mla": 18619, "cleavage": 28691, "leans": 12671, "nottingham": 11331, "##olo": 12898, "depict": 17120, "mg": 11460, "hook": 8103, "##tle": 9286, "56th": 29087, "confirming": 19195, "##dly": 18718, "armenians": 20337, "accumulated": 14830, "stunts": 28465, "accuse": 26960, "necessitated": 29611, "intermittent": 23852, "jaya": 24120, "##bry": 25731, "walked": 2939, "strode": 11885, "partisan": 14254, "intuitive": 29202, "tenure": 7470, "1980": 3150, "le": 3393, "unanimous": 13604, "civilization": 10585, "##stic": 10074, "stacy": 18566, "arts": 2840, "##ifying": 11787, "mixture": 8150, "fictional": 7214, "encountered": 8567, "drip": 27304, "joshua": 9122, "##itative": 29293, "pc": 7473, "audiences": 9501, "\u0f0b": 1424, "2002": 2526, "##nte": 10111, "pressures": 15399, "division": 2407, "saratoga": 23136, "hidalgo": 24715, "marsden": 29558, "demographic": 15982, "mobilization": 25580, "##cide": 27082, "realising": 27504, "costello": 21015, "refuses": 10220, "stretches": 14082, "charlotte": 5904, "meanings": 15383, "##\u611b": 30379, "##making": 12614, "monumental": 15447, "augmented": 19335, "monarchy": 12078, "thinner": 23082, "##placed": 22829, "pioneers": 13200, "relics": 16712, "sioux": 16615, "target": 4539, "##hard": 11783, "##ode": 10244, "1996": 2727, "midfielder": 8850, "doctoral": 11316, "skip": 13558, "##\u026f": 29688, "##\u9234": 30491, "bar": 3347, "occupy": 11494, "netball": 25034, "someplace": 24956, "lois": 15815, "cantor": 26519, "murderers": 28882, "265": 20549, "##unda": 18426, "\u03ba": 1164, "##\u03b7\u03c2": 29155, "brighton": 10309, "hierarchy": 12571, "destined": 16036, "guarded": 13802, "##yuki": 19663, "missionaries": 11743, "options": 7047, "spared": 16891, "governor": 3099, "barefoot": 22985, "cpi": 28780, "##ener": 24454, "una": 14477, "intact": 10109, "lime": 14123, "consolidate": 24939, "generating": 11717, "\u53e3": 1788, "##yah": 17560, "gunpowder": 22220, "##\u028b": 29699, "coating": 18898, "citations": 22921, "contracted": 11016, "logan": 6307, "ashford": 26545, "magistrates": 23007, "##37": 24434, "expired": 13735, "##oya": 18232, "inflicted": 17303, "systems": 3001, "cemetery": 4528, "nautical": 11339, "directional": 20396, "##ken": 7520, "micro": 12702, "culinary": 20560, "fearful": 19725, "##rly": 21194, "bartender": 15812, "##dden": 17101, "arte": 16185, "dreams": 5544, "barbed": 25007, "##ball": 7384, "products": 3688, "##ische": 13719, "shannon": 10881, "amplitude": 22261, "##udence": 29424, "\u0686": 1303, "elise": 14251, "##ywood": 26985, "roberto": 10704, "##stadt": 21543, "crippled": 24433, "[unused295]": 300, "grounded": 16764, "peck": 18082, "318": 27003, "sulawesi": 29078, "\u30ab": 1700, "eliza": 13234, "\u10dc": 1449, "concentrations": 14061, "[unused671]": 676, "decline": 6689, "fool": 7966, "[unused120]": 125, "anarchy": 26395, "saga": 12312, "aeronautical": 25010, "narrated": 17356, "settles": 27221, "sleeper": 24372, "ireland": 3163, "rescue": 5343, "conflicts": 9755, "##edly": 26207, "oddly": 15056, "coughed": 19055, "straightening": 27508, "##chua": 26200, "ap": 9706, "violence": 4808, "celtic": 8730,
[...]
